<unk>
▁t
he
▁a
in
▁the
▁▁
▁o
▁w
re
▁s
nd
er
ha
▁b
is
▁of
ou
on
it
ed
en
▁f
▁c
▁m
▁and
▁to
es
or
▁p
ing
▁in
▁d
ar
ll
at
an
as
▁l
▁h
▁n
▁▁▁▁
om
▁he
ic
▁ha
▁be
le
▁g
▁I
▁e
hat
ot
ion
st
ut
ow
ve
ent
al
se
ly
im
▁re
▁th
▁T
ce
ld
id
▁that
▁was
▁on
gh
▁wh
▁it
ir
▁u
▁y
et
ver
ith
ur
▁for
ay
▁as
▁"
▁with
ro
▁is
▁his
ct
ad
▁we
▁S
▁A
▁st
ri
▁you
ch
am
her
▁an
ght
▁M
▁The
ra
▁not
▁C
--
ter
▁at
▁had
▁H
ill
if
▁B
oo
il
▁se
ain
ould
▁▁▁▁▁▁▁▁
▁su
ich
▁by
ke
▁her
ess
▁de
red
rom
▁which
pe
ore
ul
▁me
▁con
all
ation
ge
th
▁him
▁so
▁or
qu
us
▁W
▁P
▁have
ac
and
▁from
est
res
▁v
▁ex
ome
▁L
▁but
▁all
▁sa
ight
nt
▁ne
▁this
ers
▁k
▁_
ous
ol
ant
ble
ist
pp
▁were
▁sh
os
▁she
▁G
▁are
ust
▁F
▁whe
▁r
em
▁they
▁up
um
▁my
ard
▁who
our
ie
."
art
▁D
▁al
▁E
▁man
ate
ig
▁com
▁their
▁do
▁one
ong
el
▁▁▁▁▁▁
▁int
ast
▁them
very
iv
▁R
ive
ame
▁pro
ound
ind
pt
un
out
▁no
ort
▁O
ood
▁wor
ity
lf
han
▁le
▁N
▁been
,"
od
ak
ell
ost
▁ab
ies
▁there
▁said
ough
▁would
ure
ther
▁pl
reat
ry
▁kn
▁J
op
ect
▁will
▁out
own
▁He
one
▁ar
itt
ck
ff
▁when
ine
ish
ment
▁j
▁un
hed
ag
cc
ide
▁fe
▁fa
ose
au
ond
ci
▁qu
ook
ass
▁more
▁sp
ence
▁ag
ven
ance
▁other
▁tim
▁li
ake
self
able
per
ack
▁▁▁▁▁▁▁▁▁▁▁▁▁▁▁▁
ru
▁some
ice
▁into
▁can
▁go
▁any
▁ad
▁if
▁has
▁im
▁en
▁It
pl
▁tw
▁us
▁(
ab
▁dis
▁am
end
ally
▁cl
▁ro
ount
ud
ng
are
ord
▁than
ade
▁what
▁ch
▁could
ite
ire
ions
fter
ove
ep
▁your
▁its
fore
ary
urn
▁very
ber
▁time
ars
wn
ans
ree
▁our
▁sha
ress
ays
▁per
▁great
age
ated
ings
▁upon
▁br
nder
other
ace
▁pr
▁over
ered
ought
ile
ap
▁'
▁part
oll
▁Mr
▁only
▁bl
ere
ved
ittle
ious
The
▁pre
▁gr
▁about
▁then
▁now
▁Th
oy
▁tr
▁like
▁should
▁know
▁In
▁again
ach
ied
▁off
▁fl
▁after
bl
?"
▁little
hing
▁did
▁“
tain
▁two
▁cha
ife
uch
av
ick
▁hand
▁too
▁made
▁see
ink
▁And
ty
cl
▁may
▁But
▁po
▁pe
ather
ull
▁fir
ild
▁thr
▁St
▁des
▁rem
ue
ward
ful
ne
▁under
▁[
ness
▁res
▁ye
▁these
▁before
▁ri
ark
▁V
▁look
▁such
ign
▁K
▁how
ER
▁good
int
▁long
▁must
ip
▁cont
ise
we
▁spe
▁first
▁comp
▁much
_,
ian
▁where
▁sc
▁ra
▁down
▁bec
old
▁bet
ath
ran
ia
ft
ons
ces
▁every
▁Y
▁comm
oss
orn
og
ory
iss
▁men
▁sm
ition
iz
▁acc
▁imp
▁ob
▁own
▁ind
▁most
._
▁old
▁cons
ater
hen
▁well
▁att
▁day
▁even
ave
▁aw
ced
ew
ily
ens
ady
!"
▁say
▁work
hes
ations
▁never
ction
man
ult
so
▁pass
ical
ict
▁through
▁those
▁gl
▁being
ors
ouse
ps
▁pres
ener
▁way
▁app
ren
iff
▁ap
▁Ch
ract
▁wr
▁might
▁came
▁himself
▁ent
land
▁think
ving
led
▁back
▁many
ried
mer
▁life
▁seem
oth
▁come
▁call
▁ey
▁▁▁
▁found
ever
te
ves
▁bel
▁She
▁here
▁ser
ase
▁let
▁same
▁sl
▁thought
▁shall
▁make
▁rep
ked
ject
ause
▁dist
▁without
less
▁fri
igh
orm
les
aw
▁just
▁ear
pect
atter
▁count
▁sub
ople
▁ke
ents
▁op
ared
ock
▁beg
▁last
ged
ible
ix
the
ished
ower
----
▁rec
ollow
▁word
▁car
▁end
▁ret
ial
▁This
ang
▁rel
omet
sel
▁em
▁place
▁ac
▁people
▁supp
▁head
ted
ened
▁wom
▁appe
▁inst
▁while
▁inf
▁still
ertain
▁form
▁co
▁They
▁diff
▁also
▁away
▁get
▁turn
▁▁▁▁▁▁▁
ince
▁right
▁went
▁nat
▁follow
▁friend
▁new
▁take
▁young
TER
▁har
▁cr
▁tak
▁▁▁▁▁
ks
▁tra
▁cour
▁reg
cess
ently
▁ord
und
▁far
▁sec
ates
ined
▁U
ple
hy
▁pers
uth
▁There
ual
ss
ited
▁arm
ib
▁child
▁eyes
▁te
▁We
▁set
▁sur
not
▁house
▁years
.,
RE
▁exp
du
▁three
▁bo
vers
ont
ret
AL
▁giv
▁poss
▁mar
▁put
▁war
▁ev
▁Eng
▁though
rib
cept
▁another
▁heart
ope
oc
▁gra
▁left
▁night
li
ither
▁somet
▁against
▁ever
▁God
ular
▁As
▁inc
▁gener
▁yet
HE
▁occ
▁conf
ON
ner
ween
▁ass
▁light
▁ref
▁tell
ows
▁once
▁disc
▁ext
▁find
ool
air
▁act
get
▁ple
ning
ins
▁love
▁few
▁want
..
ways
sw
▁pur
▁between
▁world
ived
▁nothing
ph
▁each
▁mind
▁lar
▁unt
ail
cy
ody
rew
▁face
▁chan
▁near
ures
osed
its
▁give
ised
▁took
▁At
har
ale
aut
▁saw
▁adv
ts
▁kind
gg
ier
ired
den
▁rest
most
▁aff
als
ters
att
ec
▁side
▁called
▁water
erm
▁inter
▁stre
▁add
▁gu
▁return
▁happ
▁mom
thing
▁read
▁country
xt
rist
▁father
aught
▁name
▁always
up
▁whole
ief
▁str
apt
ross
ting
▁eff
▁ins
▁certain
oot
ubl
▁things
▁When
ee
.”
▁present
ET
aid
alk
aking
▁small
vel
▁feel
▁bu
▁don
▁sw
▁answ
ton
▁hands
▁fell
iness
▁soon
ten
ched
here
▁among
ute
ention
▁mon
ason
selves
▁His
▁nor
▁sent
ense
ating
▁min
▁both
You
irl
ully
▁bre
▁home
▁If
wards
▁An
▁dra
▁lo
uring
It
▁half
▁point
▁having
▁seen
▁fam
▁done
ments
▁cle
ities
▁cond
▁whom
▁On
),
▁Jo
▁num
▁care
▁Mrs
▁hum
▁You
▁hour
▁because
▁moment
▁Br
▁art
▁land
▁For
▁fact
▁THE
,--
aster
▁looked
me
sh
erest
eth
ob
▁thing
▁told
▁sat
▁matter
.'
▁boy
act
med
▁inv
▁power
ene
▁room
outh
▁less
▁large
vern
row
▁Then
▁seemed
▁dou
▁use
pped
▁del
▁days
▁heard
ub
oun
ern
▁▁▁▁▁▁▁▁▁▁
▁best
▁however
_.
▁sil
▁fore
▁course
▁woman
▁che
IN
▁belie
▁better
▁asked
▁To
ately
▁got
ution
▁def
▁wind
▁cur
▁stand
▁mother
az
▁tru
amp
ield
▁ste
▁i
iet
ably
▁pleas
▁hard
▁Christ
▁going
▁sim
lish
▁rece
▁bro
▁almost
ey
▁suff
▁Ar
▁vis
▁interest
▁girl
▁taken
▁remain
▁perf
elt
ger
▁high
▁tre
.--
ured
▁Al
▁sk
▁enough
▁Ind
ison
▁Mar
ider
▁beaut
ling
▁does
ants
ustr
▁four
ug
▁det
▁quite
owed
▁knew
ines
ird
ceed
ians
▁inde
hn
He
▁So
▁contin
▁given
And
▁Lord
▁dep
haps
orning
▁open
▁something
▁mo
▁adm
▁words
osition
▁es
▁gave
▁el
▁sy
▁person
any
▁until
ALL
ote
▁wa
oice
aring
▁De
ific
▁keep
AN
▁death
of
▁mil
ury
▁col
urch
▁prop
▁hor
▁brought
▁fr
▁quest
▁serv
▁differe
▁door
▁dec
ETTER
AR
REE
▁dire
▁law
,”
unt
.]
▁ele
gin
▁round
▁LETTER
▁whose
▁publ
▁pri
▁cent
ser
ives
oud
ident
▁char
▁morning
▁Sp
ages
▁since
arn
▁others
{~
~}
▁opp
atch
▁Pr
▁Re
▁bus
men
ets
ually
▁themselves
▁full
▁hel
▁need
▁plac
▁white
▁year
▁charact
REEK
ering
ches
ank
GREEK
▁cor
▁bri
▁SM
ided
ued
▁That
de
oney
ung
ery
▁Miss
▁John
▁feet
bt
▁Wh
ressed
ism
▁SMALL
EN
▁cannot
▁fall
undred
But
iew
aim
▁ed
ides
▁book
▁hon
oul
▁prom
▁spir
nce
irc
gether
▁fin
fully
▁order
▁together
▁const
ken
▁mean
▁real
▁used
▁ill
▁pol
▁turned
▁necess
▁rather
▁est
to
▁case
enty
▁next
▁poor
,'
ude
▁hundred
ative
ached
oke
▁sun
▁What
▁No
▁dark
▁subject
▁underst
▁king
▁till
OR
▁above
iting
day
▁strong
ection
▁Be
▁thus
mb
▁felt
▁often
entle
▁began
ances
▁fire
▁known
▁sure
mon
used
▁true
empt
pr
▁ide
▁says
HA
ash
▁passed
hil
▁myself
ister
▁swe
▁Q
▁children
▁exc
▁pain
ES
ient
▁consider
▁English
▁Un
range
▁met
▁play
▁ground
cted
▁voice
ah
▁character
▁reason
br
ham
fort
▁wife
▁King
ert
▁sing
▁prin
▁air
▁mod
be
▁run
ott
▁lay
▁hold
▁son
▁wond
▁means
▁circ
▁sever
▁short
What
▁var
▁town
▁sle
▁along
▁par
imes
▁stood
▁dr
▁effect
▁trans
▁speak
▁herself
▁produ
▁offic
ying
▁sum
err
).
▁second
omp
owing
meric
iled
▁repl
▁All
▁six
▁Sir
▁New
▁body
ended
uc
▁doubt
▁money
read
rench
pend
ready
~}{~
▁close
uthor
▁hope
ized
▁sign
by
▁abs
▁times
▁help
▁during
▁dear
ility
▁gentle
▁within
▁obser
ges
▁meet
▁succ
▁anything
uck
▁prov
▁sch
uss
cial
overed
▁Is
▁beh
▁object
▁believe
king
▁With
▁question
iter
ames
use
▁cap
▁expl
▁prev
ime
▁perhaps
▁mis
▁tri
▁alone
▁general
ural
ousand
▁requ
▁least
▁gre
▁fur
▁nature
▁itself
aj
▁=
▁Le
▁several
▁lead
▁Americ
▁mer
▁dev
illed
▁OF
▁appear
▁number
ards
dden
▁▁▁▁▁▁▁▁▁▁▁▁
▁equ
peri
▁already
iful
tern
IT
eng
ric
▁common
▁black
▁Sc
▁div
▁held
▁lau
aint
▁Cl
ists
▁deep
▁thousand
▁bra
itted
▁different
▁eas
▁unc
ety
▁thou
▁human
▁By
une
▁indeed
▁success
▁ten
▁dri
▁pat
▁wood
▁hear
son
▁women
▁dead
▁proper
ature
▁sudden
ius
▁England
▁state
▁therefore
▁import
▁stru
▁earth
▁desc
▁gone
▁appro
▁cried
▁either
cha
▁account
iam
▁prof
oint
▁hist
▁start
ination
▁Pro
for
aptain
▁possess
▁ir
▁sea
▁city
llustr
▁author
▁brother
▁bed
▁letter
▁fav
▁respect
▁bar
▁spirit
▁French
▁mount
▁command
gr
▁vol
▁pret
aven
▁fort
▁leave
ane
▁Par
No
▁public
▁sn
iving
▁comple
ices
IS
▁Con
▁stud
▁bur
▁became
▁conc
▁How
io
bit
▁manner
Th
▁remem
▁remark
ats
▁soul
Oh
▁thy
▁Her
▁become
cious
▁fre
▁eng
▁val
▁talk
▁friends
▁view
ring
▁cut
▁stra
▁purp
▁replied
▁sound
▁port
omm
▁|
▁truth
▁diffic
fe
idence
▁coll
▁clear
ax
ream
▁tem
asion
▁X
▁possible
▁Fr
▁ca
ented
▁fair
ney
aughter
▁ran
▁Will
▁Nor
cul
ues
ex
alth
▁arri
▁expect
ics
▁One
▁bring
▁exam
▁dest
▁answered
that
▁partic
▁red
▁live
▁whether
▁prob
ley
ording
▁jud
no
vernment
over
▁lost
▁family
▁five
▁kept
wh
▁princi
▁dro
▁free
▁received
ster
ught
▁line
▁behind
▁understand
▁decl
par
aves
ement
lu
▁wish
oura
▁mid
rying
ising
▁mark
▁mus
▁except
▁following
▁mere
AT
▁express
val
▁towards
▁road
▁fear
▁bes
Yes
ek
▁past
▁ru
though
rigin
iously
ony
▁lady
▁making
▁sold
▁gold
tained
▁wall
ining
akes
▁business
▁et
attle
▁pa
der
▁regard
▁month
▁enem
▁My
ission
olog
▁horse
Illustr
▁around
iment
▁fine
▁show
ondon
mp
▁pract
▁chief
ork
▁looking
IL
▁beautiful
▁seems
▁ship
ality
▁excl
▁anim
▁ut
arent
▁Ed
▁leg
IC
lled
way
que
enn
Illustration
▁sit
▁trou
ron
▁Se
iar
ize
▁hus
▁Col
itions
ased
▁Now
gy
▁able
▁coming
▁blood
▁fig
We
▁sort
▁low
▁origin
sp
▁sol
▁twenty
▁begin
owers
ript
▁exist
isf
▁Ger
ected
▁foot
ained
▁conv
▁disp
band
▁sir
▁treat
▁really
ilt
▁wonder
▁pie
▁sight
▁why
▁followed
medi
sequ
▁returned
▁list
--------
cing
▁school
▁early
▁river
co
▁ii
cient
ship
▁London
▁After
▁else
itude
▁cross
HAP
▁necessary
▁Char
ones
ots
mber
▁learn
▁perfect
▁evening
▁result
▁dut
▁quick
▁relig
che
▁faith
▁draw
ole
▁front
orrow
▁stri
▁cal
▁arms
▁ve
▁miles
utes
ledge
▁acqu
ls
ament
▁story
aving
▁later
▁dang
▁occasion
▁main
dle
▁▁▁▁▁▁▁▁▁▁▁▁▁▁
▁&
II
▁cause
▁mag
▁church
▁worth
▁Ge
ases
▁lad
▁cold
▁table
▁dem
els
▁vill
▁carried
▁hur
▁position
pper
▁sal
bed
▁ready
▁move
▁wild
Well
ging
▁pay
arch
ctor
.)
▁lab
▁eye
▁prot
HAPTER
ounded
▁answer
oor
▁step
--"
oly
▁sense
▁across
but
▁These
▁tou
▁Go
▁ce
▁class
uff
eneral
ops
▁thee
▁(_
▁fif
▁AN
▁esc
▁Brit
▁repres
airs
▁Ad
inary
▁bad
▁Of
ze
otion
▁cast
That
bs
iver
ead
▁self
inct
▁sometimes
▁pict
In
▁II
▁entire
▁Fran
ified
arr
▁bene
▁idea
▁husband
ains
ength
body
well
ped
antly
▁term
▁Dr
mbl
▁appeared
▁purpose
ries
▁nearly
▁age
▁particular
▁mist
▁further
what
▁bit
ef
▁vi
▁hours
iod
▁party
side
ush
▁force
▁longer
▁ann
▁ter
▁immedi
▁satisf
itten
▁strange
▁eight
▁.
▁continued
riage
▁‘
▁squ
▁quiet
▁Bl
ann
▁length
▁deal
▁ask
▁pray
ils
▁reached
irt
▁tend
▁opin
▁incl
▁build
let
▁former
▁latter
▁direct
bert
itting
vo
aimed
▁heav
uted
▁sett
ume
▁Not
▁attempt
▁peace
▁CHAPTER
ples
▁influ
▁according
resh
▁forth
where
gan
ences
▁scar
cially
iers
▁sleep
alked
sc
ustom
▁master
ploy
▁visit
▁proceed
▁sweet
erous
ours
idge
▁hill
▁fellow
oes
vol
▁rock
▁Or
▁led
▁hast
▁placed
▁history
▁Pl
▁circum
▁period
.[
▁fight
ape
▁inform
▁ought
There
▁secret
ivers
ald
▁spec
▁surpr
room
....
▁quar
▁priv
▁natural
▁late
▁field
usion
▁Car
▁win
OU
▁post
▁deg
▁German
▁fac
▁From
▁lim
▁tro
angu
▁won
▁ver
▁added
▁died
▁prep
▁imag
ina
▁sac
▁incre
▁occup
▁forward
▁corn
▁watch
▁med
▁rose
▁hot
head
▁prison
▁pop
▁hair
erv
▁send
oe
▁taking
▁mur
▁break
▁bey
If
▁States
▁employ
▁Ab
ms
▁France
EL
▁army
▁daughter
cell
▁wit
▁determ
cend
▁beyond
▁la
ency
▁experi
▁glad
ggest
vere
▁walk
▁feeling
▁big
ously
▁streng
rs
▁Cha
▁slow
stem
▁forg
▁knowledge
dom
ision
▁mor
▁probably
rodu
ically
▁service
▁Am
ening
▁grand
▁spoke
▁pal
like
▁soft
▁suggest
▁Per
ciety
▁everything
▁attack
ogn
▁creat
▁bright
▁although
▁Har
▁change
▁hig
app
orge
She
aged
ighb
▁emb
...
iling
▁comes
oman
▁distance
▁joy
▁dream
▁entered
▁desp
▁court
▁mention
▁suppose
ital
ING
▁happy
▁Mad
▁thir
▁living
▁obl
▁stay
DW
▁enemy
▁attention
▁suddenly
ises
▁delight
▁neighb
hood
uke
▁camp
ior
ivid
▁saying
▁dog
▁fast
owd
▁Christian
▁Z
▁breat
ounds
▁enc
▁laid
tered
▁company
▁belong
ump
▁pretty
▁written
ories
▁repe
▁Ne
▁da
ires
▁bird
▁remember
ium
ixed
▁und
▁circumst
▁complete
▁compan
OT
amed
▁intell
uct
▁mouth
▁plain
pid
▁conn
▁nation
▁parts
▁Church
pecially
ler
rupt
▁boys
▁jo
▁wat
▁sad
night
▁greater
▁slight
▁William
▁describ
▁contr
ouses
▁Here
na
▁May
▁occur
ming
▁none
▁Eur
▁sens
ift
ray
ask
hys
▁system
▁heaven
▁cra
rif
LE
▁cre
▁suffic
?”
joy
▁Phil
▁Do
▁neither
▁top
ience
▁laugh
▁certainly
lect
▁bear
▁estab
▁Captain
▁American
▁commun
▁jour
▁toward
▁opened
▁Pet
▁accept
▁Fl
▁Bar
ively
▁x
atic
bo
▁ago
▁polit
▁pen
iding
▁meas
▁langu
▁ant
OM
▁rich
▁concl
▁various
▁den
velop
▁Europe
hip
▁AND
▁imm
▁paper
▁pleasure
▁difficult
▁gentleman
▁gard
▁appl
you
reg
my
▁ty
enth
▁depart
▁tor
▁consequ
▁coun
▁anx
erence
▁sto
▁Lady
▁Let
▁General
▁lived
▁persons
▁generally
aul
with
wise
▁duty
kes
▁af
ys
▁conce
ushed
▁important
▁Hen
itary
▁remained
teen
ingly
▁compl
bur
▁spo
Why
aching
ites
note
▁comfort
eness
orts
▁doing
▁frequ
con
▁battle
ests
orses
▁plan
▁thick
▁opinion
▁fut
▁mem
▁inqu
ivil
ION
▁enjoy
▁window
▁green
▁action
ille
▁Some
AS
▁fan
▁scarce
▁especially
isted
▁Ap
▁recogn
ma
ral
▁ang
▁dress
reme
?'
▁minutes
They
ument
▁burn
▁mass
ager
▁Man
orted
▁strength
ned
▁places
▁government
▁poet
▁boat
ator
▁blue
▁resol
▁demand
▁shad
▁trust
▁makes
▁grow
▁influence
.=
▁gen
▁Paris
▁super
▁months
▁ast
▁crowd
▁appearance
▁wide
ipp
▁weak
gar
ike
▁didn
anced
cience
▁mine
ilar
rand
This
▁wrong
ply
▁imposs
▁condition
▁trees
▁trouble
▁Can
ford
▁heavy
yl
▁vict
lling
ored
acy
▁stat
My
ching
▁immediately
▁single
▁desire
hern
oses
su
▁gun
▁British
How
mn
▁beauty
inner
▁exclaimed
▁wanted
▁tried
▁stone
▁fresh
AM
▁hat
▁north
▁El
▁standing
iety
isc
athe
af
▁lord
▁island
▁letters
▁Em
▁sister
kn
rent
▁oper
ingu
▁below
▁Pe
eks
▁George
▁Don
▁convers
▁bound
▁horses
▁broken
osp
iant
oved
itution
▁ancient
▁trib
▁yourself
▁whis
▁mater
▁chance
▁furn
▁separ
▁youth
OL
oose
▁alt
▁Mary
▁Ex
▁rapid
▁suc
▁cru
wo
gress
▁warm
▁Ro
▁week
itation
▁succeed
▁ves
▁office
aded
▁exact
▁try
een
▁viol
▁save
▁cry
idered
▁third
▁afterwards
▁hardly
▁inn
▁future
yn
▁York
▁century
go
spect
str
▁Ital
▁silence
▁Qu
omes
▁food
▁bott
ishing
roy
▁Que
ajor
▁arrived
▁tree
▁die
▁works
onel
▁situ
iction
▁formed
▁impossible
▁develop
▁safe
erc
ogra
▁presence
▁See
▁contain
▁IN
ession
▁hy
iced
ED
ulty
▁lie
hard
omin
▁instead
oted
uous
▁gall
▁mad
▁cost
▁shar
urs
▁fle
▁chair
▁Tr
▁liter
▁wis
por
ales
▁simple
face
▁gri
rop
umb
▁lips
▁liber
ourage
▁perm
▁vessel
▁Gu
▁Jack
▁famil
rest
osop
▁pun
ortun
ootnote
▁Gree
▁books
▁individ
▁smile
▁clot
To
▁comb
ruction
▁hop
▁enter
▁happened
▁organ
osing
▁covered
▁carry
▁fat
▁glass
▁god
▁stream
▁merely
▁lines
ulation
:--
▁introdu
rible
ethod
▁noble
▁easy
▁entirely
▁note
▁wrote
IG
▁eat
▁drew
ication
▁beginning
Then
▁south
cil
imate
light
itable
▁meant
▁Sh
▁advant
▁fool
come
▁filled
▁sole
inc
▁somewhat
▁raised
esty
▁village
▁civil
▁drink
▁paid
▁direction
ellow
▁Pres
aled
▁Why
▁Indian
▁Oh
▁whatever
ean
raid
▁figure
pond
▁stran
ech
▁individual
fer
▁usual
aff
▁cases
▁Sha
acher
▁knows
▁grave
▁West
▁perform
sembl
▁▁▁▁▁▁▁▁▁▁▁
▁easily
▁similar
▁spring
orough
▁press
▁giving
▁fun
ny
▁Count
▁phys
▁represent
▁yes
now
oured
▁oblig
▁piece
▁phil
▁music
▁circumstances
▁loc
▁United
right
▁struck
▁Ag
bled
▁guard
▁Comm
▁capt
▁experience
▁expression
house
▁street
▁considered
ghed
▁Henry
▁House
▁society
▁thinking
▁houses
AC
▁shore
▁fing
ashion
enced
▁custom
icate
▁journey
ox
▁walked
▁subst
▁observed
▁State
▁material
ae
▁straight
icked
▁iron
▁surr
▁ign
▁grace
arrow
▁mill
pel
olute
▁bless
rel
▁pure
▁learned
oom
▁greatest
▁caught
▁design
ho
▁Indians
culiar
▁broad
▁fru
gment
▁Span
▁moved
▁impress
▁scarcely
▁Thus
alley
race
▁leaving
▁summer
▁slowly
▁language
▁seeing
▁officers
dd
▁extra
▁married
▁process
ux
aries
▁bank
▁lower
▁Charles
lt
mbers
▁board
▁tears
▁afraid
▁peculiar
!”
ITH
▁host
▁tone
road
▁allowed
▁thoughts
▁La
hel
──
▁loved
ades
noon
▁ball
▁sick
▁value
▁Tom
▁amount
▁dinner
orth
▁danger
uded
ett
▁started
▁virt
▁built
ishop
▁path
St
bles
▁Lou
▁fal
▁neg
▁Prince
▁getting
▁Gr
▁showed
▁*
oon
▁accomp
▁ban
▁spot
▁forget
US
under
▁apparent
ev
▁evil
▁girls
irth
▁health
▁supposed
ether
▁born
▁North
▁race
ointed
ourt
ENT
ctions
▁Was
▁expected
▁admir
het
umed
▁seven
!'
▁scene
▁charge
form
▁walls
anch
▁inj
▁produced
▁forgot
▁record
▁magn
▁tast
▁deser
▁drawn
▁etc
▁laughed
▁garden
▁opportun
▁terr
▁mut
olly
oyal
▁pra
▁grew
▁impro
▁stopped
▁gaz
▁passion
▁appears
▁inha
▁forms
▁depend
▁thirty
▁Gl
set
▁leaves
▁Aug
▁Jes
▁Well
▁shown
lend
▁method
▁modern
▁mess
▁dread
▁claim
▁assist
▁Queen
appe
▁troops
eds
▁changed
▁mountain
▁quickly
▁educ
▁determined
▁cloud
▁fra
▁lives
▁favour
▁dim
▁flowers
Not
▁mot
ibly
gel
itive
▁hung
oup
▁South
▁exec
▁snow
▁strugg
▁utter
▁ere
▁picture
▁distingu
▁shout
▁middle
▁James
▁foreign
rict
▁firm
▁cop
▁Roman
zz
▁notice
▁hath
umn
▁afternoon
▁declared
▁discovered
▁earn
▁reach
▁surface
hest
ested
▁Every
▁cat
irst
icated
▁killed
▁religion
▁marriage
▁waiting
known
▁news
uses
▁gives
ishment
zen
inite
▁unto
ii
lls
▁Co
▁id
▁neck
▁breath
▁goes
iles
▁winter
▁authority
▁excell
▁forest
▁attend
▁philosop
ails
▁laws
▁pleasant
hold
▁temper
hib
▁write
uge
ergy
elve
▁rid
▁cover
▁prepared
vation
▁outside
▁pull
▁soldiers
▁original
▁Yet
▁Sch
▁hang
▁property
▁sin
▁considerable
▁du
bers
▁decided
▁cou
▁equal
▁silent
▁loss
▁narrow
▁fifty
▁distinct
▁pap
▁special
▁absolute
how
▁plant
▁tender
▁hero
ding
▁trave
▁honour
▁receive
▁study
▁captain
▁sor
▁fixed
▁difficulty
▁appre
▁America
▁revol
soci
▁existence
opt
ague
▁due
▁shot
▁reply
inal
▁ph
istic
▁storm
▁meeting
lin
▁der
ables
clock
▁Rome
▁private
action
▁artic
asp
▁arg
III
ription
▁usually
▁fly
▁symp
▁conversation
▁names
▁beside
▁destroy
▁di
▁minute
▁Thom
▁heat
▁sitting
▁Where
▁height
▁species
reet
IA
▁sword
Footnote
sec
▁matters
▁cit
▁Great
▁interesting
▁WITH
▁passage
▁dry
▁conduct
▁doctor
Now
▁Min
▁eager
UR
▁wished
▁Ric
peror
▁Father
▁Ant
▁vain
▁War
▁wait
▁favor
jo
▁ur
▁moon
▁Dav
▁habit
For
▁likely
▁religious
hens
▁escape
osite
▁extreme
vey
▁Duke
▁kiss
▁sand
▁allow
ompl
▁mentioned
▁sufficient
▁passing
▁repeated
▁speaking
▁broke
nal
▁Sm
lly
▁ladies
▁Paul
▁floor
oming
▁av
▁crown
ois
pir
▁personal
_;
sed
▁ordinary
▁speech
▁sail
▁animal
▁Jew
▁cult
▁Russ
▁princip
▁fashion
pping
arily
▁corner
▁believed
▁song
▁moral
iqu
▁simply
▁evidence
▁mel
▁adopt
▁discuss
▁advantage
▁ones
▁smo
▁degree
look
▁rise
▁test
▁members
ram
▁lif
▁Government
An
▁example
▁Ear
Do
▁exerc
▁silver
▁perfectly
▁disg
▁fail
▁support
▁apart
▁building
eb
unk
▁Sw
▁sty
▁bill
▁unless
▁Ju
▁coast
aval
▁tit
▁stock
ibility
▁required
arer
▁Gre
▁crit
▁sides
IV
▁descend
▁"'
▁agre
▁officer
ias
▁steam
▁obtained
▁spread
▁offered
▁rule
▁bread
IR
ception
▁Sec
ander
▁August
▁conscious
▁ourselves
▁higher
▁concern
▁fro
ustri
vernor
▁Mon
ification
▁progress
ville
▁ess
bered
▁bitter
dy
▁rail
▁Their
▁closed
▁Cal
▁please
▁described
cle
ik
bar
▁wise
▁maid
ses
▁Cr
▁Cor
▁miss
▁motion
▁twelve
▁animals
▁running
▁orders
ners
▁box
▁band
▁political
iments
▁beneath
▁unf
▁grad
▁space
▁steps
▁serious
▁Sam
▁understood
▁{
▁Bo
▁proved
▁Our
▁ende
▁drawing
▁opportunity
▁pale
▁spent
As
▁possession
▁print
uten
▁intellig
▁turning
▁reb
▁sky
▁grass
▁regular
▁fol
▁vent
▁Mor
▁cab
ctr
itor
▁rul
pered
▁justice
▁Such
▁deli
▁rare
▁susp
▁terrible
▁While
▁opposite
aken
ization
▁aut
illy
▁fit
▁gro
▁bod
▁portion
▁frequently
ogether
chant
▁instant
▁witness
▁pock
▁touch
▁weight
▁Even
▁caused
▁pot
▁chap
▁false
retched
asc
▁calm
▁rain
lected
uf
▁shut
▁agree
ajesty
ounced
▁contro
▁instance
ify
▁game
▁train
▁iss
▁illustr
off
aped
▁native
▁preser
▁intended
▁happiness
ocked
hal
▁loud
▁Peter
▁bow
▁parent
ration
chan
▁Bur
inent
▁beat
▁arch
▁hall
respond
ology
▁pieces
▁accompl
▁star
▁west
▁grant
▁prove
▁splend
▁engaged
▁▁▁▁▁▁▁▁▁▁▁▁▁
▁imper
▁station
cher
▁pit
iently
▁...
▁Frank
▁sharp
▁meaning
▁difference
illing
▁doll
idently
▁affection
omen
rank
morrow
ear
ril
wing
ipped
▁yellow
▁carefully
▁sav
RO
▁proud
▁ep
▁pet
field
▁disappe
▁cand
▁lying
▁military
▁earli
So
arm
ember
wood
▁Comp
ternal
▁Court
▁brown
▁reve
▁Colonel
▁employed
▁rob
▁prec
▁tong
▁points
▁roy
▁forty
▁writing
▁--
▁corre
▁courage
▁promise
▁surprise
rid
When
▁Just
▁thrown
▁mort
▁takes
▁trying
▁stop
▁vast
▁popular
▁presented
▁situation
▁benef
AD
▁wealth
eg
was
fortun
▁honor
▁importance
gypt
▁ring
cip
▁Ir
▁heads
▁threat
▁ST
▁fish
▁valley
▁pleased
▁mach
▁TO
▁size
▁seat
▁prevent
▁cred
▁offer
ational
▁fortune
▁conditions
Is
ait
▁aston
▁spite
▁Port
▁numerous
▁trad
._,
▁emp
▁fright
▁memory
▁finally
▁van
▁ignor
▁trade
view
▁mountains
▁social
▁conqu
nes
▁speed
▁ways
▁colour
▁wonderful
bid
▁quant
▁threw
▁sake
rem
olic
▁looks
▁named
▁endeav
▁thorough
perior
▁search
▁earnest
▁rend
▁Jud
ocks
▁Const
▁facts
▁spoken
▁remains
▁stir
▁affairs
▁information
fast
▁resp
icious
▁curious
oned
ancing
▁obtain
▁dism
▁birds
▁afford
▁sacrif
uments
▁birth
▁Louis
stand
lished
▁wid
▁tall
alt
ees
▁proport
lo
▁Vir
▁worse
▁fier
▁taste
amb
▁avo
▁ordered
▁writ
▁bottom
▁forced
▁perce
▁attract
▁▁▁▁▁▁▁▁▁
▁fem
▁talking
▁published
▁wel
▁stro
▁clean
▁finished
▁occupied
▁bold
▁inhabit
▁servant
rud
▁III
▁arrange
▁quarter
ien
▁wine
▁remarkable
utions
▁fallen
▁Jer
ially
▁Egypt
▁effort
▁sympath
essor
▁season
▁royal
▁Who
▁thin
▁Jesus
▁fully
▁altogether
gl
mit
aced
ores
▁weeks
usted
erable
rees
▁exper
lex
▁capital
do
ege
which
▁blind
▁darkness
eal
▁ris
▁Cong
▁cheer
▁Tur
▁fruit
iden
ublic
▁working
isters
▁measure
▁questions
All
iny
▁obliged
▁reading
▁correspond
sy
eed
▁ears
▁honest
CH
▁events
she
▁movement
▁greatly
▁brave
▁feelings
▁pictures
▁Scot
▁err
▁dwell
▁besides
rence
▁Thomas
fl
On
aces
▁Jan
▁stage
▁advance
▁anxious
▁liberty
▁grat
▁aid
▁holding
▁terms
▁breast
▁"_
▁Dan
alled
itated
ailed
▁suffer
▁extent
▁exactly
min
pet
pelled
▁compar
▁Richard
ental
▁associ
▁succeeded
▁sev
iance
▁Mart
▁style
icks
▁serve
▁wounded
antic
orious
▁exped
estern
▁clothes
▁guess
▁upper
!--
▁Com
ensive
▁settle
▁promised
▁histor
▁weather
▁hills
▁suppl
▁worthy
atures
▁powers
ending
▁distant
▁univers
lict
▁judge
ST
▁proof
▁famous
▁report
▁redu
▁Dick
_)
ky
▁diss
▁event
▁east
▁addition
▁dam
▁hes
ulous
▁Madame
urb
▁AL
ulf
▁mir
urally
▁marked
▁streets
burg
▁yield
▁familiar
▁regarded
oles
asons
bb
ashed
▁displ
▁establish
▁principle
idenote
▁excellent
▁Rep
▁hid
▁judgment
yr
▁burst
Sidenote
TH
Don
▁glance
▁square
▁gentlemen
ios
▁citiz
▁Pal
▁hunt
rig
▁Mont
▁bare
▁severe
ators
▁otherwise
▁reign
▁opening
ival
▁dign
▁brill
▁becomes
▁cook
▁superior
▁settled
▁tow
▁accompan
leg
ayed
▁ideas
▁fancy
▁rough
▁solemn
▁lot
▁June
▁undert
▁address
▁confess
▁independ
▁principal
quis
▁qual
▁sought
orne
▁pride
▁Him
▁share
▁er
▁Spanish
▁neighbour
AP
▁freed
▁advent
▁fault
▁shape
▁March
▁soldier
Let
▁wear
▁follows
▁established
eper
▁dise
▁lies
▁uncle
▁hearts
▁roof
▁sour
ora
▁bas
tering
▁leading
▁highest
At
ID
▁Old
▁pack
▁bull
▁tea
▁fate
▁lean
▁Ber
Ah
ams
▁bab
▁served
▁district
▁Law
▁sorry
▁thank
▁disapp
▁beha
▁entr
EC
▁catch
▁Sy
▁practice
chief
isions
▁daily
▁faint
▁woods
▁centre
▁priest
▁resist
▁stranger
----------------
▁dust
▁gate
▁entertain
▁wouldn
▁XX
▁lose
liament
▁nations
▁necessity
▁Mag
▁dece
ograph
▁doctr
▁glory
▁pointed
▁particularly
ok
▁Me
▁Fig
aches
▁companion
amm
▁Su
▁innoc
▁Cath
▁relations
▁equally
▁dom
▁Street
acle
aked
▁fond
ette
▁removed
▁watched
Of
▁forgotten
sha
▁exceed
see
▁preced
ems
▁cell
▁mult
▁▁▁▁▁▁▁▁▁▁▁▁▁▁▁
▁ships
▁remarked
▁evidently
▁blow
▁divine
▁produce
▁throughout
▁eld
▁group
ability
▁waters
▁Coll
ulated
ids
aret
▁asc
ading
▁shook
▁confidence
athered
▁prince
isp
▁keeping
cks
itz
▁iii
▁rising
▁shoulder
==
ourse
▁farm
▁growing
GE
▁shoulders
▁Two
▁unw
using
▁tot
▁Sund
▁exhib
▁inches
▁instru
esh
lebr
atory
▁interrupt
▁larger
▁contrary
▁advanced
▁principles
▁vig
▁seek
▁pos
▁price
attered
▁desired
▁knowing
▁appointed
▁increased
▁amb
▁possessed
bted
▁Mac
▁concer
▁kingdom
▁Ma
rose
▁cool
▁cruel
▁consequence
▁Cast
▁science
▁carriage
anc
erson
,[
ipe
▁Sen
▁clim
outhern
▁occurred
ule
▁Hall
▁sorrow
▁apparently
▁interp
▁{~
▁gar
▁dare
▁dangerous
▁vo
▁handsome
ata
▁pp
ault
▁reck
▁thro
▁shadow
▁Mc
▁egg
▁pounds
omb
▁brief
irm
kin
ocr
uel
▁Pat
▁Vol
▁Greek
▁rate
▁Che
▁aud
van
aker
▁More
▁treas
▁taught
nat
▁inhabitants
▁myst
▁acquaint
▁remembered
eping
▁empt
▁purcha
uary
▁Hel
acity
▁celebr
ama
ara
erred
▁aside
▁pocket
ilst
eder
ieur
▁title
▁Hist
.’
▁cow
▁page
▁explain
pes
bling
▁satisfied
▁unknown
SIL
ancy
▁isn
▁marry
▁states
▁River
▁Edward
▁fart
▁contem
▁smiled
▁dropped
▁education
ainted
▁manif
astic
overy
▁nine
theless
▁distinguished
ese
▁lear
▁secure
▁intellect
ye
▁instr
icy
▁Spain
▁Many
▁mighty
ode
▁kill
▁belief
▁knight
▁supply
▁provided
Mr
▁Jose
▁explained
▁Island
▁sacred
▁refused
▁President
▁holy
▁driven
▁surprised
▁Def
▁legs
▁noticed
ada
rang
▁que
▁windows
OW
▁rapidly
ousin
▁prim
▁shows
▁travel
▁enemies
▁powerful
▁proceeded
▁CH
ushing
▁double
▁prefer
tis
▁Te
ique
▁connected
▁murm
▁Virgin
▁tongue
▁fingers
▁bodies
▁expressed
hus
▁discover
gen
▁Af
▁golden
▁useful
▁subjects
AY
port
▁Wil
▁pity
▁date
▁vers
▁elect
oring
ico
uls
▁lod
▁High
▁nice
▁First
▁suffered
key
▁Prof
▁grown
▁transl
▁proportion
▁volume
esc
▁carrying
--_
cknow
urd
hant
umber
▁cloth
▁Oct
orous
▁pursu
va
▁aware
▁suggested
▁une
▁couldn
▁failed
▁cup
▁bell
▁major
▁servants
ror
▁consist
mas
place
▁July
▁faces
▁numbers
▁Ham
▁Arch
▁edge
▁acknow
▁crossed
▁quietly
ims
▁wand
▁April
▁stands
five
llen
▁series
hand
▁Franc
);
▁played
▁seized
▁creature
▁Lu
arest
▁agreed
▁dollars
▁invol
umph
▁Prin
▁content
▁cere
▁whispered
▁impression
▁shel
▁extraord
▁naturally
▁completely
stone
-+
=,
just
▁excit
orthern
▁regret
▁Emperor
▁actually
▁rank
▁reader
▁objects
▁breakfast
Ar
cture
▁alive
▁resembl
▁spirits
oms
berg
▁surely
▁finding
▁directly
▁palace
▁composed
▁David
▁mission
▁log
▁Sept
▁truly
▁invest
▁worked
▁absence
atin
▁Alex
iation
▁Irish
▁trembl
ture
uries
verse
▁East
▁suspect
cts
▁Jim
▁tal
▁gain
▁aband
▁flower
ker
hington
onsieur
▁fellows
AU
cer
ica
▁rub
▁gathered
▁national
rey
cies
▁Bra
▁flesh
ributed
▁papers
▁theory
▁hurried
▁Red
▁bent
ential
▁Philip
▁willing
can
▁iv
▁pred
▁harm
▁tired
▁During
▁current
aud
▁beast
▁Majesty
▁touched
▁accompanied
THE
▁ing
▁rocks
▁throw
▁yards
▁concerning
ares
ufact
▁bore
▁mile
▁relief
▁clearly
His
elle
▁Smith
aper
▁ice
▁hither
▁represented
▁suffering
itch
mony
▁Es
▁Im
▁India
utation
▁description
chen
▁bag
ivity
▁teeth
lection
▁Germany
AND
kind
▁affect
._--
▁Ben
▁needed
▁figures
▁Heaven
▁gather
dra
isl
rate
▁orn
izing
▁Fort
▁burning
▁farther
▁admitted
▁sup
▁smoke
▁joined
__
▁Had
arted
▁skin
enes
▁splendid
▁dressed
▁retreat
▁unfortun
▁tail
▁saved
Al
uding
▁En
▁Ser
▁Sunday
.;
umes
▁hosp
▁sche
▁commer
▁guns
▁Master
▁proposed
law
▁Mo
▁waited
ivered
▁drive
▁march
gu
▁bran
▁features
▁IV
▁obst
▁angry
▁arrival
▁development
Where
iring
▁explan
▁applied
▁respons
agon
cles
▁Yes
▁Robert
▁duties
▁fifteen
▁fortun
▁excitement
▁ain
▁pair
▁arran
▁Good
▁freedom
▁coff
▁crim
▁consideration
▁midst
▁spect
▁spr
ilities
▁talked
▁results
▁treated
rie
osen
▁mas
▁impl
▁Italy
▁genius
▁accepted
▁minister
asing
▁luck
▁Before
▁z
▁base
▁diam
Who
▁Mount
vi
gged
▁obey
▁putting
pon
bury
▁novel
▁prayer
▁writer
▁extraordinary
Ch
udd
isher
▁lack
▁lake
▁Joseph
▁forces
▁Ca
ardon
▁Wal
▁myster
▁worship
cked
▁lands
utenant
▁buy
esides
▁advice
▁purs
▁Cam
▁Ire
▁exha
▁sons
▁enthus
▁Ph
▁cultiv
▁instinct
Be
while
▁coat
▁correct
▁official
],
ais
mond
uable
▁level
▁partly
▁stones
▁entrance
▁bal
▁indu
▁faithful
▁tempt
▁listen
▁increase
▁previous
▁companions
▁~
▁gloom
▁persu
▁rights
▁quantity
See
▁Ara
▁walking
▁flo
inity
▁soil
▁castle
▁closely
▁Bel
▁saf
▁Washington
bon
▁Fred
terday
▁stars
▁hearing
▁demanded
edy
eter
▁Med
▁wants
▁moving
▁parents
▁brilliant
ishes
▁pick
▁minds
▁spiritual
lor
estic
▁virtue
▁falling
▁Congress
com
▁amongst
unch
▁Its
▁salt
igned
▁gained
▁bearing
▁surrounded
By
ta
▁Rom
asant
ecause
▁color
▁White
▁Acc
▁Mil
▁uns
▁shoot
▁connection
atives
▁spend
▁twice
ological
▁telling
RI
▁ho
▁mal
▁fill
▁slave
then
▁inside
▁nearer
▁suspic
inet
▁project
▁gradually
inn
▁Your
ieve
▁admin
▁yours
▁struggle
▁profession
▁Wor
▁flat
▁constit
▁evident
▁sympathy
▁flag
▁rode
▁task
▁fighting
happ
▁pill
work
----"
▁queen
▁watching
▁env
▁join
▁pros
▁type
oration
▁bridge
▁counten
leep
▁wore
▁affair
▁rendered
▁brain
▁tells
▁whilst
▁absolutely
▁introduced
▁rout
▁excited
▁relation
▁satisfaction
▁san
▁showing
rant
▁Mer
▁ceased
▁supper
▁shame
▁member
▁listened
▁interests
ERS
iest
▁engine
;"
ads
▁Eliz
▁amid
▁Royal
▁depth
▁unable
▁Perhaps
▁striking
wed
▁column
pro
▁practical
▁+
▁deb
▁assured
▁welcome
▁ble
▁rev
▁couple
▁lovely
ips
Come
ension
▁disci
▁store
▁prepar
▁teacher
▁milk
UL
cean
astern
▁grief
▁render
▁stated
▁adopted
▁efforts
lessly
▁swift
▁merchant
standing
▁informed
ari
▁Ven
▁Defn
▁Major
▁pu
icip
▁begun
▁calling
▁literature
▁thoroughly
reek
ustomed
▁moments
▁population
OS
▁Jul
there
▁manufact
kins
▁Sal
▁San
ittee
utch
▁Reg
▁fold
▁reser
▁dull
▁fields
▁recoll
▁protect
▁worst
▁Pope
▁Never
▁intention
onn
udes
▁Holy
▁Among
▁ident
▁skill
▁labour
▁careful
▁destroyed
▁libr
▁loose
▁reven
▁possibly
▁busy
▁delicate
▁highly
▁Italian
▁parties
four
▁indign
▁kindly
▁wholly
▁vessels
pri
▁Sat
▁devil
▁noise
▁safety
▁prisoner
enny
▁Inst
▁suit
▁labor
▁appreci
▁addressed
▁Ly
▁chamber
▁smiling
▁hun
▁copy
▁hide
▁active
▁flight
▁Another
▁dying
▁resolved
▁Bet
▁Black
▁hence
▁immense
UN
▁arrest
▁compelled
▁Del
▁fer
▁gle
▁hurt
▁directed
▁require
▁buried
▁circle
▁variety
▁approach
▁constitution
▁Cle
▁dozen
▁happen
▁exchan
▁concerned
▁hab
iture
▁drove
▁local
rim
host
▁Ireland
▁wed
▁gods
▁cro
▁pron
ounding
ILL
▁rom
▁mat
▁defe
▁plate
▁fierce
▁presently
▁prisoners
tic
▁huge
▁admit
▁visited
▁continue
OD
ATION
▁ride
▁Afric
▁Brown
▁empty
▁wings
▁desper
nel
▁despair
▁branches
▁successful
iece
▁Mex
▁aver
▁escaped
▁patient
▁Rev
▁non
▁seated
▁acquaintance
▁keen
▁collect
▁devoted
▁friendship
▁liked
▁actual
iform
▁countries
▁disappeared
etch
aming
ograp
▁smooth
has
▁deeply
▁wisdom
▁laughing
▁immediate
▁conclusion
orse
▁grey
▁rejo
▁mistake
▁accident
▁Sim
▁Francis
bre
▁Coun
▁sheep
▁reasons
ato
▁Lie
▁Rob
▁views
looking
▁cattle
▁citizens
la
"--
olf
▁xx
▁Mic
▁rad
ician
▁flour
▁contained
,’
TA
fle
▁Prov
▁condem
▁remind
hall
▁Mal
itory
▁notes
ourable
▁lifted
?--
more
▁impat
▁exercise
▁assistance
▁imagination
▁Jac
onscious
ends
inate
▁narr
▁chosen
▁disease
ober
▁physical
▁singular
▁subm
▁earlier
▁valuable
uts
▁butter
▁Catholic
▁Long
▁text
▁fairly
▁sovere
▁stories
▁exception
aps
.--_
▁gray
▁solid
▁stead
▁yesterday
▁[_
────
▁mix
▁----
aling
▁credit
▁imagine
▁However
▁divided
.—
ov
▁gay
▁hopes
entions
▁market
▁terror
▁attached
▁fever
▁cousin
▁statement
▁interested
who
▁Wood
▁conven
▁energy
▁sooner
▁discovery
▁tum
▁trem
UM
▁Bill
▁ends
▁kinds
▁Nature
▁victory
▁pressed
▁DE
▁crime
▁causes
▁kindness
ris
Here
itchen
agement
▁protection
ARD
▁voy
▁bay
▁por
inced
▁ended
▁recomm
▁strict
▁doctrine
ols
▁Though
▁Gra
▁Again
▁abund
▁inquir
▁constant
teenth
▁Grand
▁Harry
▁plants
▁effects
▁repro
▁capable
▁request
▁arranged
rit
gers
▁rooms
▁towns
▁constantly
after
▁Somet
▁dignity
▁separate
▁countenance
▁Ann
▁sex
▁guide
▁becoming
▁mercy
▁praise
▁chiefly
▁bringing
ana
▁ge
▁Mark
▁explanation
▁Pers
▁stern
▁Company
▁printed
ula
thur
▁Off
▁tax
▁Book
▁magnific
iber
▁meat
▁Still
▁trial
uit
Good
▁plenty
▁control
▁contempt
ption
▁reward
▁September
▁sentiment
▁cord
ointment
eding
eless
rated
▁demon
▁doors
▁assembl
▁friendly
aunt
▁drop
▁contract
▁Parliament
▁Feb
▁Whe
▁Come
▁Those
▁privile
▁approached
sey
▁Hill
▁Mass
▁colon
▁range
▁stick
▁region
▁prospect
▁Po
▁aim
▁bord
▁fought
▁containing
▁Du
▁Pol
▁dish
▁precious
▁final
▁accustomed
win
▁Je
▁Nap
atively
acon
▁murd
▁thousands
emed
▁deck
▁teach
▁unhapp
▁mistress
▁Tra
▁Life
▁Society
▁bought
▁murder
▁details
ns
ena
▁lat
▁indiff
▁Nat
▁tur
▁Marg
▁proc
▁sugar
▁cities
▁Hu
abeth
▁hoped
▁playing
▁visible
ds
arse
asped
▁tale
ealous
▁commanded
▁expedition
usc
ller
ulse
conom
▁caval
▁prompt
▁quality
EM
Your
aints
▁arose
▁changes
IST
▁nose
▁improve
UT
ldom
worth
▁everybody
oqu
▁Ac
▁banks
▁choice
▁female
▁proble
▁classes
▁brothers
▁sufficiently
oston
▁Prot
▁Professor
PSIL
▁Tem
▁pan
PSILON
▁avoid
▁nerv
▁throne
▁lux
▁worn
▁gently
his
ribed
▁Love
▁foolish
▁charming
ige
illa
▁bree
▁desert
▁message
IM
▁nur
ounce
▁caut
▁defend
▁regiment
bly
▁Earl
▁rear
▁asleep
With
irit
▁Hon
▁ruin
▁clouds
iable
▁sigh
father
▁hotel
▁Ste
oused
rough
▁goods
▁Besides
▁oil
▁amaz
▁greet
▁growth
▁wicked
▁maintain
mo
otes
▁dig
▁Aunt
▁hate
▁Little
▁article
▁slightly
▁reference
ston
▁Dor
acles
▁pour
▁scient
▁ma
▁bid
cember
▁lover
▁singing
▁triumph
▁services
▁sacrifice
ino
they
▁fleet
▁reflect
▁families
don
iel
hire
▁liqu
line
▁amuse
▁painted
▁Bob
▁perpet
▁natives
▁instantly
amps
tt
itate
▁indul
▁signs
▁govern
▁intense
▁administ
ilty
▁Green
▁Latin
omer
▁wound
▁hidden
▁wishes
▁October
▁prosper
▁commission
jud
▁Cat
▁ven
▁consult
Wh
▁Ah
▁Er
riot
board
▁anal
▁dawn
▁knees
▁critic
▁investig
▁card
▁raise
▁temple
▁thinks
▁purposes
och
long
inking
▁granted
▁kitchen
hem
▁Cont
▁aunt
▁dogs
▁wasn
▁police
▁attended
▁everywhere
▁Scotland
▁treatment
RON
pected
▁anger
▁mental
▁chapter
▁smaller
▁division
▁innocent
▁XV
upon
▁Cons
▁crew
▁Union
▁awful
▁boats
▁ahead
pent
▁Bay
▁acts
▁aspect
▁cho
▁ham
onder
▁recon
▁clergy
▁vision
▁extended
▁sentence
▁qualities
ura
oleon
▁artist
▁ascend
▁acquainted
ulate
▁schol
▁simpl
▁souls
▁tight
▁policy
▁conscience
▁calls
▁Bishop
▁observ
▁cler
▁defence
▁characters
One
rous
▁Ver
▁kings
▁older
▁nobody
▁returning
lar
fulness
▁interf
▁rushed
▁unex
▁unus
▁needs
▁poison
▁priests
▁Governor
▁ox
▁newsp
▁voices
▁literary
▁delivered
Per
▁Des
ieved
▁frame
▁calcul
▁permitted
book
urity
▁finger
▁pulled
▁condu
▁slaves
▁constru
gs
ourn
▁Jews
▁blank
▁Doctor
▁mystery
▁dreadful
].
arts
▁Arthur
▁fourth
mes
▁shr
erted
▁subsequ
▁OM
▁Did
▁fund
urches
▁furnished
ELL
▁fled
▁specim
▁destruction
ago
rael
▁Men
▁key
icity
▁Park
▁emer
▁jealous
▁shouted
▁ze
pless
▁anxiety
▁argument
▁admiration
oop
▁ben
▁obv
▁shop
▁paused
▁departure
▁occasionally
cho
tle
mosp
▁baby
▁hole
▁asking
▁habits
▁Elizabeth
▁preserved
▁City
▁seldom
▁January
▁learning
▁dischar
▁contrast
▁formerly
▁strongly
CE
eenth
▁Nove
▁curios
▁sprang
▁consent
cest
inese
▁chest
inction
▁Britain
▁reality
▁TH
inging
▁county
ai
bour
▁Conf
▁eggs
asions
▁emotion
▁committed
▁extremely
▁sixty
▁intelligence
▁CON
antry
gon
▁Bab
itect
▁weap
fect
▁Only
▁Bible
▁spark
▁convey
▁younger
▁articles
atre
▁cott
▁probable
▁Act
▁Spe
▁odd
agger
▁Like
▁ages
▁wheel
▁infinite
▁accomplished
▁understanding
fall
▁branch
zy
▁stret
▁exposed
▁December
▁frequent
▁likewise
▁philosophy
▁consciousness
bing
rill
▁choose
▁manners
▁uniform
bel
▁atmosp
▁lately
▁buildings
▁celebrated
▁vic
▁plans
▁confusion
Ex
hael
▁Val
▁mechan
▁machine
erior
▁enorm
▁poetry
▁inquired
▁interrupted
rows
will
▁Sav
▁phr
▁ease
▁accur
▁weary
apan
▁observe
ua
ugg
▁Land
▁performed
',
▁FOR
▁Corn
▁Charl
▁feast
▁hollow
ria
▁Chan
▁haven
▁Indeed
▁cheeks
▁source
▁thunder
this
▁alike
▁dance
▁clever
▁Nothing
▁Napoleon
▁announced
▁instrument
▁Thou
▁Boston
▁strike
▁Win
▁tub
▁wet
ground
▁veget
▁Having
▁inclined
ighed
▁avail
▁reduced
rier
▁rene
▁domin
▁betray
▁compre
▁comfortable
irs
▁depos
▁behold
▁readily
▁Mars
▁Under
▁accord
▁affected
▁contains
aks
Will
ruary
▁savage
PHA
▁guilty
▁founded
iah
▁BY
▁Mid
▁procl
▁thanks
▁universal
▁frightened
;--
born
▁Austri
▁absurd
▁pardon
▁attitude
▁household
▁operation
▁unfortunate
▁fatal
▁thrust
▁Chinese
▁properly
▁doubtless
▁punishment
ste
▁Sl
▁convinced
▁fo
otton
▁Spirit
▁schools
▁manifest
▁miserable
OP
ogue
▁profess
▁mysterious
ella
▁jew
henomen
org
------
▁Russian
▁violent
AB
aine
olid
▁Art
▁batt
▁lone
▁sell
▁econom
▁assumed
▁Margaret
▁majority
hend
▁Emp
▁bos
▁pil
▁laughter
when
▁Div
▁tribes
▁acknowled
▁centuries
Qu
▁Ox
irty
▁bew
▁ner
▁portra
▁throat
▁recognized
Un
rian
▁hyp
▁armed
▁blessed
rog
▁ax
▁clo
▁fulf
▁waste
▁recent
▁movements
▁sen
▁Rose
▁steep
▁softly
▁counter
▁enjoyed
▁library
▁difficulties
Go
▁Tre
▁Flore
▁European
▁Squ
▁forbid
▁incident
yer
▁Pri
▁nodd
ashing
stairs
▁ALPHA
▁delay
▁ocean
▁stairs
▁glorious
▁wretched
withstanding
erer
vent
▁Other
▁Scott
▁breaking
▁belonging
▁tomb
▁conver
▁opinions
za
owder
▁stepped
▁scattered
▁nav
▁inch
▁owing
▁stuff
▁indust
▁scheme
▁whence
EW
▁horn
▁Uncle
▁surre
▁abroad
▁flying
▁utterly
gend
▁mud
▁pup
▁bond
▁perman
▁Hal
▁unp
inder
▁degrees
ola
▁pipe
▁pages
▁shade
▁sounds
▁eternal
▁interview
mat
pic
erent
▁Lake
▁propri
▁Mat
▁hint
▁setting
rep
raph
▁remarks
▁Virginia
▁quarters
▁substance
▁Ang
▁tent
▁appeal
▁shining
▁pressure
imp
▁mode
porary
sell
▁inse
▁reported
▁attempted
▁sovereign
aign
▁Mur
▁oath
▁warri
▁Council
MA
▁Once
▁comr
▁desir
▁Monsieur
▁ignorant
▁northern
Did
▁enterpr
▁phenomen
SS
ums
▁RE
owned
acious
▁benefit
▁profound
▁remaining
▁lit
▁Both
▁Cent
▁sust
▁whenever
▁concluded
gest
▁insp
bridge
▁measures
▁curiosity
▁scientific
_--
lers
▁gift
▁apply
▁moder
▁Mother
▁compet
▁utmost
▁created
▁expense
▁mankind
▁execution
▁Ke
▁Sar
▁acid
▁rang
▁excess
iversity
▁governor
▁Christmas
▁essential
▁Tw
urbed
▁picked
▁element
▁feather
had
▁Fer
rived
urance
▁Three
▁slept
arrison
▁disturb
▁revolution
▁Jean
idents
▁excuse
▁helped
▁thence
God
▁lest
▁belonged
▁bend
._]
back
▁Mess
▁secured
▁referred
From
ifying
▁estate
▁guests
▁retired
▁Princess
▁intellectual
sm
umin
▁obed
▁knife
▁writers
▁hitherto
▁suspicion
▁Sand
▁horiz
▁tribe
▁instit
▁loving
▁wooden
▁nervous
▁weakness
▁opposition
▁hal
▁bones
▁cabin
▁grate
▁mixed
▁deliber
▁February
▁generous
▁separated
▁managed
▁precise
▁Are
▁Ass
▁Dutch
▁Israel
▁restra
▁volunt
▁counsel
acc
met
mir
phe
▁gif
uther
▁meal
▁voyage
▁domestic
eous
icial
▁elev
▁About
▁Japan
▁vague
ancholy
▁career
▁churches
AV
▁club
▁borne
▁begins
▁horror
▁History
▁unhappy
▁Ros
▁silk
▁zeal
unning
▁withdra
▁nevertheless
asm
rue
atus
▁pin
ington
▁mounted
▁related
▁Dar
▁fee
▁Have
▁delighted
▁characteristic
held
▁Int
▁Mel
▁doesn
▁entit
▁pause
alem
▁Bro
▁rude
gments
elled
▁frank
▁reform
▁anybody
▁including
▁cig
▁swept
▁provin
▁united
▁anticip
▁authorities
oos
▁Van
▁issued
▁creatures
▁atmosphere
▁Mill
▁chat
ression
▁edition
▁developed
De
asy
▁elder
▁intim
▁VI
nces
▁dil
▁insc
▁absor
▁ghost
▁feared
▁November
▁electric
▁bark
▁trace
▁Martin
▁ancest
▁coffee
▁dreams
▁eagerly
enger
▁rules
▁Arab
▁misery
▁continu
▁agreeable
▁unconscious
▁FR
iast
▁Far
▁observation
ORD
▁fix
▁shell
▁waves
▁insult
▁thread
▁useless
ka
▁dw
▁wra
▁inner
▁legisl
▁plainly
▁According
bro
mbly
vals
▁flood
▁lights
▁definite
▁approaching
upid
▁risk
atched
▁Secret
▁compared
▁signific
▁commenced
hank
lands
▁mood
▁seed
▁sees
▁decor
▁refuse
▁western
▁completed
uer
▁BO
▁ric
▁obsc
▁match
▁noted
▁track
▁Castle
▁marble
▁hunting
▁delightful
car
non
▁surv
▁steel
▁urged
▁islands
▁uttered
▁occasions
lets
▁bosom
▁image
▁community
ante
▁Chap
▁acted
▁using
▁shelter
▁adventure
armed
▁abst
▁forehead
ici
eral
▁Dem
▁fil
▁sus
▁contempl
Ind
vest
▁Rog
▁Sil
▁row
▁ming
▁outer
▁pushed
▁deliver
IF
▁vac
▁turns
▁spl
▁blaz
▁lamp
▁bride
▁rolled
▁troubles
▁arrangement
inth
assed
urely
▁Vict
▁Wall
▁scorn
▁council
▁invited
▁falls
▁flame
▁enormous
▁Gen
ospel
▁gets
▁Spani
▁medic
▁merry
▁burned
▁leader
▁elements
▁collection
▁hanging
oph
▁ecc
▁hit
▁Step
actory
ailing
▁retain
▁favourite
▁reputation
ache
geon
▁Hol
▁Each
▁perceived
▁stretched
▁trembling
▁melancholy
▁’
▁gazed
▁central
▁appropri
▁ascertain
▁experiment
▁independent
abled
▁fame
▁mild
sembly
▁union
▁scenes
▁disposed
▁accordingly
oys
two
arian
▁Camp
▁Jane
▁male
▁reject
▁contrib
aph
bor
▁leaf
▁rage
▁wing
illery
▁mistaken
▁collected
[=
Her
ctive
▁overt
▁ridic
▁Although
▁resistance
▁magnificent
oln
▁ens
▁dared
▁ideal
▁cavalry
▁architect
▁somewhere
mar
▁Day
▁ded
otted
▁cheek
▁issue
▁kissed
▁Christians
imony
▁brig
▁rival
General
▁Russia
▁freely
▁crowded
▁attacked
▁discussion
ini
othe
▁brow
▁gaze
▁pier
▁solution
ANT
▁dar
▁rele
▁barbar
▁riding
▁disposition
Le
▁Sol
iated
▁Part
▁owner
▁elsewhere
▁distinction
▁-
ita
yard
▁grim
▁poem
icable
tr
▁Fin
apers
mother
▁Trans
▁angel
▁confined
▁tradition
▁Dra
▁ach
▁nest
▁charm
▁humble
ca
aws
▁Den
▁Saint
▁eleven
▁glanced
▁decision
▁distress
uv
ros
▁awa
▁rent
▁supported
▁circumstance
."[
▁Ep
▁les
▁toler
▁rivers
▁lighted
▁interior
▁supplied
oh
▁doc
▁alarm
▁error
▁curtain
▁derived
▁marched
▁examination
itute
▁rope
ipping
aughters
▁campaign
▁demonstr
▁humanity
▁neighbor
aver
▁Cham
▁hurry
▁loyal
▁shock
▁whisper
▁treasure
▁operations
▁Cra
▁pist
icient
▁dimin
▁acquired
▁Christianity
fty
▁Ye
iana
▁Four
▁anch
▁grasp
▁stiff
▁widow
▁Freder
▁charged
▁methods
▁violence
▁wondered
iasm
▁rush
▁drift
▁ignorance
▁uncertain
cel
▁cher
▁bears
hearted
▁resolution
lla
▁ON
▁finds
▁fired
▁average
▁examined
▁provisions
XX
——
oria
▁Sea
▁apt
▁yard
▁straw
▁summon
▁Protest
Are
OUR
▁Gal
incoln
▁ingen
▁superst
▁consequently
vell
▁Pen
▁vel
▁college
▁pursued
erity
▁entering
OH
_]
▁Bu
adel
mark
▁Cur
▁bul
▁ren
▁rig
shine
▁genu
▁lonely
▁prayers
istry
▁coach
▁consists
▁entitled
▁murmured
▁previously
_:
ero
amma
▁Rem
▁roll
▁painful
▁deserted
▁restored
▁generation
▁unexpected
add
ange
cast
▁inex
▁batter
▁speaks
▁grounds
▁province
▁abandoned
▁desperate
▁establishment
OC
▁Joe
▁ard
▁sla
peare
▁Germ
▁rust
▁bishop
▁sleeping
▁accompany
aux
▁Water
▁existed
▁hastily
▁largely
▁conviction
ESS
▁Cap
amped
osure
master
▁departed
Tis
▁sym
▁ult
▁spare
▁signal
▁encoura
▁sincere
▁studied
▁recently
▁structure
OUN
some
▁Dev
▁dram
▁tied
▁marks
▁prejud
▁instances
ibr
iii
▁Gold
▁Look
▁Carol
▁Since
▁check
▁School
▁assert
▁astonishment
▁adj
▁este
▁penet
▁teaching
▁Son
▁flew
▁southern
HT
bell
▁corrupt
▁audience
▁industry
▁Bon
aying
▁resc
▁burden
▁warning
▁devotion
▁recovered
▁Bell
▁Most
▁eleg
▁haste
▁passes
OV
▁Sus
▁Fair
liness
▁College
▁monarch
▁residence
▁slightest
_).
icit
▁encl
▁total
▁Africa
▁steady
▁Lincoln
▁enthusiasm
igs
reen
▁rum
engers
▁attain
▁safely
piration
▁troubled
▁directions
▁foundation
low
▁Fa
▁Abb
▁fest
▁shru
▁nodded
▁capacity
▁conflict
▁millions
ado
▁impr
▁chain
ography
▁patience
▁listening
iate
oubted
▁blame
▁concealed
▁application
OTA
ulgar
▁agent
▁cries
▁inher
iveness
▁rarely
▁gratitude
▁preceding
▁construction
Or
Have
gent
▁Cape
▁firmly
▁exceedingly
▁od
▁prud
▁uncom
▁rested
▁masters
▁section
▁Sometimes
▁historical
BER
west
burgh
enses
▁Hence
▁annoy
▁afterward
IX
Look
adem
hers
▁MAR
▁sed
▁bask
wick
▁Fore
▁puzz
▁runs
▁flung
▁stout
▁trail
▁captured
▁standard
Can
eps
rer
from
usions
▁scale
greg
▁gas
▁gates
▁altern
▁empire
▁specul
▁tables
~,
abor
ients
▁grou
umption
▁propos
▁beloved
olk
▁Dun
▁mart
▁symb
▁legal
▁Illustr
▁nearest
,—
Sir
▁oh
▁memor
▁muttered
▁throwing
EST
umped
▁conj
▁altar
▁cliff
▁begged
▁Johnson
▁assembled
▁exhausted
time
▁Fri
▁antiqu
▁failure
▁Republic
▁experienced
▁communication
Hist
pher
▁App
▁cart
ications
▁forgive
▁midnight
▁seriously
cent
▁Rel
ICRON
▁rese
▁OMICRON
▁continually
wl
▁Ele
▁Res
arded
▁IOTA
ensions
ulations
▁limited
ki
ieu
▁om
uman
▁Anne
▁hers
▁handed
▁complex
▁earliest
OND
quet
▁net
hamed
▁bowed
▁eloqu
▁tower
▁whist
▁cotton
▁forever
▁helpless
▁daughters
oser
▁Dou
▁Sur
inger
▁pref
▁wire
▁permit
▁driving
▁slipped
▁Rh
ican
▁parish
▁leaders
▁problem
elf
gra
elling
▁hungry
▁readers
▁conducted
▁inev
▁plat
▁Jacob
▁territory
▁Pre
▁nights
▁unusual
▁Lieutenant
▁neighbourhood
tym
xed
▁Any
▁Holl
raction
▁persec
▁compass
▁accounts
▁sunshine
▁maintained
quar
▁Card
▁Hard
racted
▁adapt
▁loves
▁crying
▁conceal
▁cottage
arl
▁Mean
▁boast
▁sorts
volution
▁comment
▁describe
▁bi
water
▁wave
▁sisters
▁presents
▁stronger
▁individuals
itan
ements
▁Which
▁erected
▁genuine
▁activity
▁descended
▁Pier
▁noon
▁railway
▁seventy
▁settlement
OK
HER
alls
olution
▁relative
▁Alexander
▁suggestion
SE
.),
ipt
rol
▁cam
usive
aments
▁refuge
▁sending
▁ceremony
▁villages
ida
====
▁vii
irmed
udden
▁estim
▁paint
▁precip
▁practically
▁AR
▁tide
ustral
▁incon
▁swall
ertainly
▁situated
Re
▁sul
▁Post
▁verse
▁wives
▁belongs
▁forming
▁commonly
abb
▁Hy
▁deny
▁root
ricult
▁aloud
▁holds
▁Canada
▁landed
▁transp
▁dancing
▁railroad
▁permission
gels
▁hom
▁VIII
▁aven
▁sang
▁Death
▁Oxford
▁saddle
RY
Very
ronic
▁flow
▁treaty
▁writes
▁emperor
▁opposed
▁gracious
▁reaching
▁University
lle
▁unl
▁bottle
▁unlike
inations
▁Southern
▁external
▁insisted
IES
esar
▁Thy
uting
usalem
▁route
▁Walter
AG
▁AT
cont
▁Gall
▁subs
▁Young
▁thine
▁trick
▁actions
oral
allel
thren
▁nurse
▁sport
▁winds
amation
olation
▁claims
IE
din
▁brid
▁gest
▁sore
▁Second
▁senses
▁million
▁shortly
▁venture
▁inferior
eries
hedral
▁fears
▁eating
▁Michael
▁ability
▁furniture
May
elly
▁China
▁absent
▁resour
▁stupid
▁contrad
▁discipl
▁resumed
▁tendency
orus
▁Dep
▁alter
▁exert
▁ruins
▁prophet
▁necessarily
!_
rap
▁Gard
▁Romans
▁contact
▁eighteen
▁notwithstanding
,)
UC
aus
zed
▁feed
▁gent
▁merc
▁terrif
▁receiving
ga
._)
▁coal
▁hell
▁torn
▁autumn
▁increasing
▁ash
▁ped
▁Bert
▁haunt
▁shoes
isation
▁ashamed
▁overcome
▁suitable
mouth
▁Upon
▁summ
▁Baron
▁slavery
▁drinking
achment
▁beings
▁poured
▁Through
▁pursuit
▁reflection
▁intelligent
▁Leg
▁wre
▁tear
▁trip
iverse
▁guest
▁Columb
▁notion
▁recover
▁Lee
▁Out
icken
▁bind
▁merit
▁Temple
▁victim
▁EPSILON
▁threatened
OHN
olate
▁imagined
▁Str
▁sie
▁von
▁shed
▁peril
▁resting
▁strangers
▁originally
omed
▁cas
▁lap
▁Helen
▁brand
▁reckon
▁declare
▁combined
▁dwelling
▁Secretary
▁suspected
▁Ty
icted
▁doth
▁pant
pended
▁tones
▁Florence
▁testimony
▁Mus
▁VII
▁remo
▁tele
▁bloom
▁extrem
▁Austral
▁cutting
▁protest
▁contents
▁materials
▁prevented
▁ga
inks
▁Inf
▁tiny
▁revel
▁shake
▁waist
▁impulse
▁commerce
ulp
ules
▁rav
▁debt
▁homes
▁shalt
▁decide
▁legend
▁remove
▁diamond
▁obvious
▁block
▁pover
▁strain
INE
_),
▁ta
ucky
▁Gil
▁swear
▁acting
▁masses
▁shadows
▁slender
▁somehow
▁crossing
▁existing
da
After
orter
▁mast
▁stared
▁enabled
▁Alb
Perhaps
▁brings
▁embarr
▁relieved
▁conception
URE
about
ormal
▁sale
▁Script
▁cheerful
▁exchange
▁passages
▁indicated
▁succession
bow
fts
uce
▁Ol
▁Mem
itors
▁Grant
▁patron
▁moreover
sal
▁rot
aping
▁prem
▁metal
▁lesson
▁scream
▁neglect
▁wrought
▁displayed
IP
▁MR
▁echo
▁ours
erring
▁thereby
▁hundreds
▁Jerusalem
wr
▁OX
acco
▁cheap
▁fitted
▁heavily
▁poverty
▁supreme
▁astonished
ART
abel
bler
vert
▁Bre
▁wag
▁idle
▁roads
▁detail
▁limits
▁parted
▁profit
riptions
▁consequences
icing
▁Turk
course
▁fatig
▁ranks
aration
▁fathers
▁seeking
▁ambition
ded
equ
ona
olved
▁Kent
▁breeze
▁solitary
▁apprehens
alo
era
uns
pton
ranc
assad
uthors
▁leads
quisite
▁touching
▁extensive
▁distinctly
▁introduction
net
▁tar
▁engra
▁lofty
▁sevent
lessness
▁EN
▁Take
▁chem
▁phot
▁limbs
natural
uddenly
▁abrupt
▁shield
▁dismiss
▁raising
▁undoubted
wor
anned
▁cared
▁signed
▁patriot
▁princess
▁committee
Never
▁clerk
▁Portug
▁farmer
▁quoted
▁Constant
▁doubtful
▁possibility
vin
▁Sant
▁Jones
▁naked
▁sheet
▁Greeks
▁imprison
▁civilization
▁instructions
rot
rage
eling
▁Hugh
▁fury
▁Cross
▁magic
▁OR
TION
resses
▁recall
▁dragged
▁student
▁blessing
▁fastened
▁Americans
▁leis
▁fount
▁gifts
fortune
▁election
▁recorded
▁permanent
▁comparison
▁considering
▁lin
miral
▁admire
▁prophe
▁stayed
kerchief
▁Western
▁Without
▁somebody
▁Hor
▁Pass
▁buff
▁minor
▁prize
▁administration
▁End
▁job
▁thri
estion
▁Judge
▁shone
▁deeper
▁provide
▁realized
▁Meanwhile
▁independence
atr
▁grav
▁pace
▁Crown
▁cards
▁examine
▁prepare
▁reasonable
.'"
SON
▁Ev
▁Gar
▁Also
▁vine
▁leather
rels
▁Page
▁plun
▁chapel
Cl
▁Bas
▁lic
useum
▁bapt
▁pond
▁folly
regular
▁sounded
▁covering
aur
isk
▁Bal
▁Sax
geant
urday
▁Word
▁scru
........
▁entreat
▁politics
▁wherever
▁recollect
▁temperature
▁comparatively
▁Max
▁TAU
omach
▁sank
▁Grace
▁purple
▁wanting
▁ornament
▁indifferent
▁Constitution
otte
▁tin
▁Stan
▁folks
▁beaten
▁plains
▁perceive
▁selected
▁Therefore
six
▁Est
▁Pac
▁Would
▁People
▁powder
▁feature
▁inquiry
▁regarding
TON
cia
anqu
▁Moses
▁Andrew
▁disturbed
▁SIG
▁Etym
▁fires
▁wrath
▁courts
▁maiden
▁mortal
▁grateful
▁condemned
▁Atl
▁lan
▁Next
▁lion
▁neat
▁phrase
▁eastern
▁gardens
▁records
▁wedding
▁included
▁objection
▁performance
osh
▁Cy
____
seen
▁scr
▁chose
▁corps
▁joint
▁assure
▁respects
▁revealed
▁consisted
▁travelling
--'
itty
ulpt
▁bath
▁beds
▁badly
▁burnt
▁rifle
▁finest
▁artific
▁cleared
▁respond
▁visitor
ez
▁Vi
ials
▁fasc
▁delic
▁landl
▁limit
▁colours
▁mischief
▁requires
▁Spaniards
▁exquisite
▁wondering
▁production
▁composition
▁Pur
▁Rich
▁fert
▁copper
▁rebell
▁retire
▁regions
idel
ties
asses
lying
▁Dist
▁Pruss
▁lawyer
kespeare
▁sharply
▁anywhere
▁determination
Some
riff
▁lun
▁clay
▁deed
▁folk
▁candid
▁remote
▁sailed
▁Germans
▁lightly
▁commercial
QU
▁/
gate
▁Haw
▁Mos
▁tob
▁unm
▁stair
▁fearful
ifications
▁intervals
gain
izes
mann
▁chim
▁unre
otions
▁deeds
▁pains
▁sensible
▁pronounced
OG
▁Leon
chester
▁gloomy
▁lively
ustrious
▁purchase
▁starting
▁employment
▁boil
▁commander
EY
ATE
▁disag
▁steamer
▁portrait
▁supplies
▁prel
▁moist
uscript
▁borrow
▁endure
▁triump
▁mixture
▁sixteen
▁medicine
▁writings
▁convention
bet
iary
pled
vant
arson
▁Army
▁Bern
▁sins
terior
▁Empire
▁manage
atherine
▁selfish
▁observations
IGHT
▁oak
▁ener
erness
inated
▁slain
▁enable
▁National
▁executed
▁garrison
▁horrible
▁multitude
▁manufacture
AK
tes
▁NU
▁au
anim
▁fet
asure
▁myth
▁wars
leness
ulating
Pro
▁BE
▁Fe
oked
▁coo
chess
▁JOHN
▁OXIA
▁survey
▁leaning
▁preserve
LY
Con
lem
▁mob
eight
▁Town
▁duke
▁knock
lesiast
▁customs
▁brethren
▁painting
▁platform
▁training
▁occupation
▁PR
wich
▁mould
▁anyone
▁hospital
▁transfer
▁endeavour
Se
bye
▁bade
ifully
▁cryst
▁embra
▁pound
▁vener
▁fortunate
Mar
bra
▁Fre
▁mead
▁swim
▁Sever
▁timid
▁outward
▁goodness
▁steadily
▁proceedings
";
Am
col
▁Ned
▁seas
▁smell
▁armies
▁arrested
▁disgrace
▁amusement
oof
agues
▁toss
▁vary
istics
▁sanct
▁trunk
▁detect
▁thither
MAN
anks
case
▁Sun
▁stim
keeper
▁groan
▁poets
▁staff
▁parallel
▁earnestly
alks
olph
▁Maria
unction
▁streams
▁Suddenly
▁confident
▁reception
▁satisfactory
LES
pan
▁BR
olen
part
pers
andal
▁plays
▁arrive
▁beheld
▁laying
▁repeat
▁ruined
▁quarrel
▁apartment
▁additional
▁perfection
vet
brew
bishop
▁coward
▁leaned
▁pointing
▁artillery
▁interpret
▁prosperity
occ
▁tu
phia
whel
▁Cro
▁sne
uated
▁vote
itious
▁sculpt
▁conquer
▁induced
▁studies
▁positive
▁criticism
▁enterprise
▁surrounding
▁institutions
▁sem
▁lock
▁rein
▁drunk
▁Mexico
▁cannon
▁happens
▁advantages
zo
▁Ba
▁SC
▁Mah
▁Tim
▁enlar
▁Caesar
▁groups
▁revenge
▁Moreover
▁attempts
▁obedience
▁Commission
▁misfortune
▁indignation
ISH
eman
▁COM
▁arts
▁awak
▁songs
▁unple
onsense
▁attrib
▁demands
▁precisely
lie
▁owe
▁rud
▁mock
▁pine
inence
▁magist
▁authors
▁graceful
▁attracted
▁irregular
▁lightning
▁narrative
Jo
_."
boat
▁wash
▁boots
▁flash
▁score
▁finish
▁encourage
▁sensation
En
▁flu
ester
leton
▁feels
▁grows
▁princes
▁involved
▁neglected
▁surrender
▁department
▁procession
▁simplicity
▁acknowledged
Pl
yes
phew
▁Rod
▁tick
▁appet
▁connect
▁musical
▁regards
▁inspired
▁Eve
force
phant
▁hadn
▁vivid
▁dining
▁immort
▁vulgar
▁stomach
▁wearing
▁offering
▁startled
▁physician
IAN
arte
ulars
▁buck
▁Alice
▁World
▁injury
▁paying
▁capture
▁intimate
▁gathering
▁preferred
bes
anda
rust
ashes
order
▁lust
▁cease
▁exists
▁nephew
▁whereas
▁propriet
▁admirable
plom
▁Ral
▁knee
▁crack
▁hatred
▁abandon
▁companies
▁prominent
HO
▁SP
▁Pan
These
▁Rock
▁craft
▁Luther
▁darling
▁distrib
▁hesitated
▁picturesque
▁responsible
dig
gram
▁vir
▁Penn
▁jump
▁vest
ieties
itudes
▁conceived
▁Revolution
▁strengthen
▁arrangements
cut
eur
obe
▁bat
▁init
▁mars
▁poems
▁roots
▁medium
▁thirst
▁elected
▁theatre
▁students
▁handkerchief
fa
END
iano
▁map
ushes
▁cure
▁apost
▁reports
▁fourteen
▁hastened
▁primitive
▁hed
▁Time
▁dict
▁jack
encies
▁Night
▁appar
▁champ
▁dried
▁gazing
▁traged
▁translation
ano
ras
▁PL
iner
▁Ill
▁bol
▁hut
illes
headed
▁candle
▁Holland
▁commence
▁overwhel
▁instruction
▁respectable
uity
▁Boy
▁cens
▁ward
▁Light
▁arise
▁siege
▁conspic
▁rolling
▁thereof
▁impressed
UB
Mrs
hol
▁Luc
▁slip
licted
▁cents
iations
itating
quarters
▁assault
▁desires
▁shaking
▁surround
▁wandering
iot
anny
ouch
▁ate
inson
▁jest
▁SIGMA
▁accum
▁awake
▁basis
▁drank
▁eaten
▁angels
▁heavens
▁Minister
▁complain
▁comrades
▁Shakespeare
▁constructed
▁grandfather
AST
othy
▁dur
▁qui
▁dirty
▁colony
▁depends
▁tobacco
▁newspaper
▁specimens
▁discipline
▁organization
whe
▁Os
ques
osity
▁Chic
▁mant
▁motive
▁persist
▁passions
▁undoubtedly
ribe
iforn
▁Wind
▁ling
▁disgu
▁diver
▁Samuel
▁coarse
▁insist
▁locked
▁namely
▁climate
▁columns
▁agricult
▁diameter
▁recognised
vis
mind
▁FIG
ilton
sters
uming
▁Carl
▁Sher
▁Tell
▁plot
▁rays
▁irres
▁refer
▁verses
▁gallant
▁largest
▁Footnote
▁Saturday
▁enjoyment
fare
urre
ommod
▁Lucy
▁invari
▁patter
▁motives
▁volumes
▁formation
▁provinces
eer
▁Met
▁cir
icians
▁assume
▁Admiral
▁peasant
▁proceeding
▁disappointed
gly
umm
▁Wat
▁fed
never
oping
▁Poor
▁beach
▁brass
▁keeps
▁Author
▁modest
▁plates
adelphia
▁landing
▁security
▁substant
▁phenomena
foot
ints
▁Sub
▁Serv
▁pink
▁queer
▁hospit
▁Brother
▁illness
▁correspondence
ba
iac
olis
▁Isa
houses
▁washed
▁fishing
▁virtues
▁favorite
haw
igne
▁Bart
▁Ruth
▁area
necess
▁beasts
▁feeble
▁Whether
▁charity
▁available
▁privilege
▁manuscript
▁sentiments
▁preparations
UST
onia
achel
llers
▁Turn
▁Senate
▁criminal
▁followers
▁reflected
▁Protestant
▁**
▁Cre
▁Stra
▁Office
▁daring
▁denied
▁encoun
▁perple
▁confused
▁examples
▁preparing
_{
agle
emon
▁Amb
▁bone
▁Chief
▁Shall
vention
▁defeat
▁humour
▁stroke
▁concent
▁furnish
▁dressing
▁convenient
▁subsequent
▁considerably
irk
three
▁cave
▁corp
▁doub
called
▁Roger
▁erect
▁fanci
▁grain
▁honey
▁righteous
bu
awn
lyn
▁Wy
▁clam
▁lift
aneous
▁majesty
▁combination
TS
only
▁Alf
would
▁slee
▁adorn
▁advoc
▁sighed
▁afforded
▁creation
▁provision
New
Just
have
▁org
inted
utive
▁Buck
▁bloss
▁venge
borough
▁divers
▁judges
▁shells
▁culture
▁cunning
▁marvell
▁stirred
Ne
Our
coat
rily
adise
inery
▁palm
▁prey
▁Being
▁quart
▁access
▁basket
▁planted
▁upright
▁retained
dro
burn
▁Att
orthy
pical
▁Chat
▁Down
ounted
uously
▁formal
▁losing
▁mostly
▁Stephen
▁display
▁flatter
▁daylight
Pr
racy
rich
▁Dec
aging
▁Asia
▁aged
▁wake
▁acres
▁defect
▁sailor
▁transform
▁Englishman
▁respecting
▁institution
▁disappointment
ggy
Every
▁abol
▁veil
▁vault
▁behalf
▁colors
▁Chapter
▁wherein
XV
rd
sing
ctors
▁lend
▁subl
▁sunk
idable
▁hated
▁talent
▁tranqu
▁harmony
+--------
bec
▁Ob
Tell
▁Pot
▁foe
ishops
▁Billy
▁Wales
▁roses
▁invent
▁polite
▁claimed
▁exhibited
▁Nav
▁rat
atisf
ingham
urious
▁beard
▁clock
▁harsh
▁races
▁bewild
▁forests
▁ventured
▁Frederick
▁childhood
▁recommend
▁tenderness
grat
▁fain
▁hook
▁mate
▁vice
uation
▁trump
▁mutual
▁balance
▁trusted
▁internal
▁passengers
aly
omy
▁ju
ibus
▁rhy
▁Test
▁degr
▁mans
asting
▁blows
▁ceremon
▁fancied
▁offence
▁tremend
▁treacher
▁contented
▁president
▁purchased
Was
aired
▁Mond
▁pile
▁spell
▁flames
▁induce
▁reprodu
▁Californ
▁defeated
▁confession
▁entertained
des
onic
▁Lam
▁jur
going
hered
rates
▁elabor
▁horizon
▁offices
▁critical
▁moderate
▁summoned
▁vanished
▁imperfect
▁responsibility
Ad
▁Hay
▁mour
▁musk
▁pled
▁site
▁farew
▁fifth
▁deadly
▁depths
ervation
▁Pacific
▁medical
▁accomplish
▁occasional
▁intercourse
RA
po
ORE
vag
▁IX
arly
▁Rec
▁gig
▁haz
▁Jeff
▁wheat
▁realize
▁farewell
▁comprehend
▁engagement
▁invitation
uk
vas
lder
oper
azine
apping
▁silly
▁fruits
▁staring
▁attained
▁remainder
vy
dess
eers
enna
▁Mort
▁Soon
▁bush
▁incred
▁knocked
▁clothing
▁universe
▁philosoph
▁Bi
▁Na
aria
kward
▁Cart
▁papa
▁Ralph
▁cells
oiselle
▁Hebrew
▁stolen
▁unjust
utenberg
▁descent
▁feathers
Take
ippi
▁hind
▁nois
riages
▁Knight
▁jumped
▁Edition
▁disgust
▁disagree
▁Committee
▁experiments
EG
Miss
umps
▁Ell
▁gru
▁crept
▁fairy
▁engage
▁timber
▁advancing
▁secretary
▁wilderness
Fig
chn
irds
▁tun
▁roar
▁franc
ocratic
▁saints
▁varied
▁beating
▁mingled
▁portions
▁transport
▁attractive
▁preparation
▁daz
gging
▁Swed
herent
lement
▁weigh
▁bushes
▁select
▁districts
▁proposition
▁CL
ills
▁Ple
▁Tor
▁oft
▁viz
▁agony
▁saint
▁adding
▁indicate
▁pleasing
▁unpleasant
hin
Thou
mble
olas
▁Fox
▁infl
▁incap
▁pious
▁shores
ibilities
▁vigorous
▁Arm
▁dense
▁teleg
▁altered
▁swiftly
▁Philadelphia
wall
▁Sum
▁pir
akers
▁Burn
▁gown
▁drops
▁rises
▁sober
▁wagon
▁Middle
▁calmly
▁extract
▁silently
▁appointment
▁distinguish
sych
▁Put
▁ske
might
oting
▁gang
▁holid
▁nerves
▁occupy
▁advised
▁conspir
▁destined
▁visitors
▁confirmed
▁messenger
▁vengeance
wa
▁Mir
▁ber
▁sets
▁trif
▁Child
▁tales
▁tract
▁diplom
▁awkward
▁boiling
▁journal
▁reserve
▁warrant
good
▁Bull
▁tour
▁editor
▁reproach
▁heir
ournal
▁Angel
▁brush
▁frost
▁indic
▁navig
Because
artment
▁fisher
▁courtes
▁satisfy
▁pleasures
uz
cra
inus
▁Bed
▁Gran
▁Head
▁risen
▁closer
▁prosec
▁string
▁inquire
▁persuaded
▁recognize
bbed
▁Rus
▁rug
ioned
othes
▁Nich
▁canoe
▁discl
▁sketch
▁transm
▁strictly
▁instruments
eff
nut
eyed
Thank
▁deer
▁grin
▁Arist
▁fence
▁deemed
▁eighty
▁landsc
▁summit
▁wounds
▁contest
▁funeral
▁propose
▁sailors
▁pressing
▁warriors
▁consisting
Sh
PER
▁Sk
▁cy
▁Add
▁Bru
▁Fra
▁bron
▁ugly
▁cloak
▁model
▁intend
▁occurs
▁symbol
▁congrat
▁exagger
▁hostile
▁accommod
▁neighbours
UD
fold
▁PER
▁voc
onies
▁glow
▁load
▁counted
hetic
▁barn
▁desk
resent
▁wages
▁Greece
▁liable
▁wheels
▁yonder
▁admired
▁promises
osa
▁UN
throp
ylvan
▁ample
▁ninet
▁images
▁nobles
▁throng
▁chimney
▁designs
▁gravely
▁Japanese
▁improved
▁wandered
▁associated
ORY
box
iger
▁seal
▁negot
▁colonies
▁republic
ela
acks
piece
poral
▁Barn
▁Very
▁squad
▁Jewish
▁anchor
▁remedy
▁Jackson
▁Confeder
▁protected
▁encouraged
▁Nevertheless
gn
▁oun
ifies
leans
▁Liber
▁based
▁visits
▁flashed
▁payment
▁unnecess
▁management
▁improvement
ui
John
▁Six
▁Club
▁Thor
▁combat
▁incomp
▁resign
▁review
▁prolong
▁disappear
▁Sn
agan
text
zing
point
▁Hand
▁giant
▁oppon
▁smart
imately
▁ashore
▁loaded
▁gesture
▁garments
▁romantic
▁strangely
ICK
fig
why
pass
tree
▁damp
▁seam
▁Place
▁holes
▁border
▁missed
▁superf
▁vanity
▁conceive
▁educated
▁machinery
▁temporary
ila
▁CO
▁Di
uish
your
."--_
asper
chard
umbled
▁Imper
▁angle
▁citizen
▁eminent
▁reminded
▁cultivated
tw
agn
ala
ENTS
▁mail
▁eldest
▁hunger
▁liquid
▁reluct
▁stores
▁injured
▁liberal
▁weeping
▁Cambridge
lesiastical
▁fug
▁irr
forth
▁heels
▁insol
▁rings
▁sadly
▁Berlin
▁chiefs
▁weapon
▁accused
▁answers
▁springs
▁betrayed
▁extravag
▁shooting
sch
stra
▁Gib
irect
▁Hart
▁Libr
▁Over
▁peas
▁shirt
▁Finally
▁painter
▁absorbed
▁announce
▁bitterly
▁invention
La
PA
▁RO
▁Fel
▁Low
▁yer
eches
▁Adam
ensity
▁bells
inating
▁footst
▁infant
▁repent
▁upward
▁Project
▁healthy
▁weapons
▁emotions
▁monument
▁ridiculous
▁NEW
▁Supp
▁duck
▁park
▁Marie
▁gross
▁indef
▁sympt
▁Museum
▁indisp
▁glowing
▁upwards
▁assigned
▁changing
▁heartily
▁commanding
▁illustrated
iae
▁Lar
▁Ori
cester
▁Georg
Nothing
issippi
▁prayed
▁purely
▁exhaust
▁lessons
▁renewed
▁Egyptian
▁effected
▁peaceful
▁certainty
▁resources
▁inevitable
▁resemblance
pson
▁***
acing
rants
▁heap
▁pool
▁mamma
▁whirl
▁hiding
▁normal
▁obeyed
▁organs
▁repose
▁placing
▁elephant
▁promptly
rive
▁Les
▁Lew
▁wha
▁bund
▁heed
-----+
▁meantime
▁preacher
▁prevailed
arc
grim
irts
▁Cas
▁ram
▁tube
▁motor
▁francs
▁Chicago
▁attacks
▁smoking
▁fragments
▁ministers
▁acknowledge
'.
ws
▁Dis
▁Ohio
▁Sign
▁bust
▁brick
▁County
▁Divine
▁convict
▁recalled
▁witnessed
ima
Lord
quer
▁cyl
bbing
ector
▁Ward
▁joke
▁Clare
▁cream
▁presc
▁boldly
▁handle
▁sunset
▁yielded
▁bestowed
▁floating
▁heavenly
▁severely
▁desirable
▁merchants
urg
cker
tery
ysis
▁dus
▁nut
break
ighted
minded
▁disple
▁alarmed
▁abundant
▁arguments
▁moonlight
▁traveller
▁Providence
▁tremendous
AIN
ORK
▁MS
▁PRE
▁hem
ocracy
▁curse
▁Venice
ositions
▁Austria
▁achieve
ographical
▁ancestors
▁lieutenant
pen
ersed
▁Brig
▁Gospel
▁annual
▁warned
▁Neither
▁shepher
▁Cardinal
▁designed
▁inconven
Sc
ARY
iron
▁Tri
plain
utter
▁chin
▁gran
▁dishon
▁dispute
▁precaut
▁puzzled
▁Northern
▁petition
▁scholars
▁conspicuous
ACK
Eng
pha
▁SE
gage
maid
ulus
▁pig
▁wept
▁guilt
▁naval
▁seats
usively
▁copies
▁folded
▁lasted
▁owners
▁resent
▁elegant
▁commands
▁exercised
▁perpetual
▁artificial
Col
▁Nic
▁Pop
▁nob
▁glit
▁quit
▁rice
▁toil
▁arist
▁dwelt
▁linen
▁errors
▁firing
▁inward
▁traces
▁conquest
▁expenses
▁calculated
▁hesitation
▁recognition
LD
▁Lo
▁Cab
brance
▁pitch
▁pretend
▁dramatic
▁trembled
▁Presently
▁representative
▁mun
Greek
ilian
▁Gord
▁coin
▁Babyl
▁stuck
assador
▁dashed
▁sources
▁confessed
▁California
▁photograph
OUS
ogy
▁ol
▁vit
liver
table
▁Hind
▁Were
▁Kings
▁flies
▁Reform
▁submit
▁returns
▁therein
▁jealousy
▁murdered
Bl
▁TR
imer
uset
▁Hunt
▁beer
▁Field
▁Monday
▁emphas
────────
▁impatient
▁favourable
▁marvellous
▁Fle
▁cock
▁scra
▁Apost
▁stable
▁continent
▁Ha
arms
post
▁Esq
▁Has
▁tyran
▁Barbar
▁Scotch
▁colonel
▁savages
▁wrapped
▁amazement
▁pretended
▁travelled
▁sufferings
▁Mississippi
Ab
▁Py
icer
stead
▁irre
▁puts
▁temp
▁Anton
▁colle
▁ridge
illings
▁charges
▁dealing
▁discont
▁missing
▁function
▁speedily
▁abundance
▁extending
spe
rene
▁bud
▁dun
▁fox
arious
isible
▁Betty
▁dated
▁gorge
▁mourn
▁subsc
minster
▁easier
▁Eastern
▁crimson
▁earthly
▁leisure
▁assisted
▁careless
▁declined
▁invariably
ITY
agne
nold
otel
berry
unken
▁mend
▁nurs
▁dealt
▁incons
▁openly
▁dangers
▁romance
▁rushing
▁trained
emoiselle
▁abruptly
▁frontier
▁Gutenberg
▁determine
▁discharge
▁salvation
▁surprising
▁corresponding
ACE
usal
▁abb
▁Rail
▁Albert
▁climbed
▁parting
urrection
▁smallest
▁agreement
▁conquered
▁discussed
▁rebellion
▁investigation
▁PH
▁Ru
oore
sels
▁aug
▁cel
▁laz
enery
erers
ships
▁Herr
▁neut
▁sink
▁abode
▁chase
▁fetch
▁inhab
iciency
▁warmth
▁scandal
▁interval
▁assurance
▁specially
▁parliament
▁cultivation
▁illustration
▁professional
idd
owl
uen
▁cu
bery
▁Ash
▁Ten
▁uses
orable
▁cares
cession
▁advers
▁Marquis
▁discern
▁lantern
▁restore
▁hereafter
▁affectionate
▁neighborhood
PH
Tr
▁Tay
▁Gray
▁Pitt
▁vols
▁wret
▁lowest
▁seconds
▁Atlantic
▁Carolina
▁Lawrence
▁sickness
▁questioned
▁Si
half
▁dyn
▁pha
glass
▁Edin
▁Matt
▁wool
usetts
▁ambit
▁flock
▁newly
▁screw
▁spots
ylvania
▁amusing
▁congreg
▁dearest
▁knights
achusetts
▁teachers
▁accordance
▁publication
▁subsequently
war
oric
uing
rooms
▁Lane
▁wilt
▁Faith
▁afore
▁swung
▁waved
▁income
▁avoided
▁partner
▁procure
▁restless
▁adventures
▁travellers
wer
oche
▁PRO
▁fog
▁gam
▁Bank
▁tang
▁Point
▁bullet
▁jewels
▁justly
▁Alexand
▁convent
▁dreamed
▁tragedy
▁assembly
▁vicinity
▁embarrass
▁struggling
rat
▁Pa
utor
were
▁tid
urred
▁Lang
▁outl
▁Right
▁edges
▁inval
▁rigid
▁consec
▁subtle
▁longing
▁neighbouring
ti
rick
▁kne
▁nay
▁Greg
▁alas
▁alleg
▁lords
▁prior
▁swell
▁conject
▁miracle
▁interfere
▁newspapers
▁passionate
▁bars
▁foul
▁Polly
▁griev
▁halted
▁magnet
▁widely
▁flowing
▁insects
▁Countess
▁infantry
boy
Only
rain
▁Fam
▁pip
ademy
bably
impse
▁tort
▁Laura
▁apple
▁dilig
▁vital
▁amused
▁esteem
▁impart
▁lovers
▁roused
▁interpre
▁agitation
▁quantities
▁association
FF
oid
iday
real
rons
▁Imp
▁sho
▁pole
▁surm
▁monks
▁seeds
▁steal
▁troop
▁chairs
▁intent
▁leaped
▁prohib
▁pursue
▁artists
▁muscles
▁pockets
▁divisions
ipl
▁IS
ords
▁Sac
▁dre
essie
▁flav
amental
joining
▁Commons
▁flushed
▁conveyed
▁nonsense
▁suspended
ICH
izz
▁ly
▁NOT
▁flee
▁warn
iastic
▁climb
▁seize
▁hearty
▁scarlet
▁monaster
▁punished
▁delicious
▁reverence
▁Et
▁Kn
oves
▁MAN
▁blew
▁idol
intend
▁ashes
▁owned
▁punish
▁Several
▁glimpse
▁artistic
▁deceived
▁breathing
isons
▁Vill
▁WILL
▁cash
▁whit
rained
▁brood
▁stamp
ivering
▁carved
▁gladly
▁naught
▁statue
▁wholes
▁fountain
▁Catherine
▁practised
▁indifference
UE
▁EX
even
mans
▁Nay
▁Pap
inter
▁intr
▁jury
ctures
▁Brand
▁baron
▁pluck
▁scant
ciences
▁learnt
▁challen
▁temples
▁withdraw
▁cathedral
▁justified
▁organized
▁positions
▁formidable
cal
rown
stru
such
▁Tit
▁Wel
ribly
tical
▁Conn
▁hymn
▁Should
▁judged
▁mainly
▁merits
▁sermon
▁Turkish
▁aroused
▁chances
▁fatigue
▁stately
▁Hamilton
▁specific
▁specimen
▁professor
▁responded
▁affections
▁philosopher
▁threatening
▁disagreeable
▁Massachusetts
TE
ilda
ouri
▁Tro
▁max
hable
press
ridge
▁Home
▁soot
▁verd
▁center
▁wander
▁doorway
▁periods
▁estimate
▁elevation
ée
thy
▁CAP
▁alle
▁ferv
aparte
▁crimes
▁driver
▁gallery
▁inherit
▁torment
▁Franklin
▁Williams
▁reserved
▁stopping
▁thirteen
▁antiquity
▁selection
▁inspiration
wen
ball
oard
▁Budd
▁Kate
▁Till
▁trap
▁canal
▁skull
▁stole
▁unity
▁prodig
▁saving
▁torture
▁replaced
▁represents
▁FO
▁Mod
▁hay
ipper
icular
▁faced
▁faults
▁closing
▁outline
▁Imperial
▁fortunes
▁witnesses
▁generations
▁probability
▁recommended
▁recollection
LL
hor
▁Mas
▁Sel
▁shy
▁vap
▁wax
▁Beau
▁adds
▁pulp
▁sung
▁tact
▁psych
▁purity
▁Frances
▁Islands
▁faculty
▁courtesy
▁shouting
▁landscape
▁attributed
▁appropriate
▁successfully
got
▁HE
▁Up
▁Fif
▁Inn
▁Tal
iolet
▁drum
▁needle
▁suited
▁deserve
▁totally
▁solitude
▁reasoning
▁temptation
▁impressions
▁unnecessary
rec
lock
▁omn
----,
rical
▁FROM
▁peop
cellor
▁fragr
▁purse
▁Bridge
▁Pierre
▁apolog
▁lament
▁quaint
▁Central
▁invented
▁shillings
▁triumphant
▁remembrance
hi
DER
rup
."--
onse
▁ink
▁weep
▁wont
▁awoke
▁bills
▁humor
▁pupils
itations
▁adapted
▁appetite
▁approved
▁deprived
▁incidents
▁honourable
▁experiences
▁inclination
ARE
ands
door
itia
umer
▁VAR
▁dew
ilful
▁morn
▁Homer
▁prime
▁Palace
▁anxiously
▁searching
▁endeavoured
ayer
icle
▁Ing
▁lav
▁Goth
▁Last
▁wolf
inding
▁rocky
▁witch
amented
erences
▁Associ
▁guards
▁thresh
▁Orleans
▁happily
▁surgeon
▁Edinburgh
▁Testament
▁observing
▁illustrations
,_
.|
ICE
ithe
shire
▁Burg
▁Hell
▁soci
ederal
ranean
▁mines
▁wreck
▁collar
▁longed
▁perfor
▁traced
▁Duchess
▁believing
▁influences
▁differences
>,
eau
nex
LAND
aire
ollo
▁dat
▁Ball
▁push
▁spared
▁sphere
▁crushed
▁filling
▁letting
▁doctrines
▁innocence
▁possesses
▁strongest
▁comprehens
ISS
Mad
amin
adian
orney
▁Bour
▁brut
▁dumb
▁file
retion
▁arbit
▁worsh
▁Athens
▁acquire
▁condemn
▁conform
▁enlight
▁sailing
▁sinking
▁requested
bear
ooped
▁Lind
ilight
▁fiery
▁boiled
▁haught
▁heroic
▁corners
▁cruelty
▁guarded
▁killing
▁stretch
▁whither
▁backward
▁morality
▁discourse
▁elaborate
▁varieties
▁particulars
VER
bal
▁il
omon
▁fib
white
▁Anth
▁Fitz
▁Flor
inkled
ulsion
▁boxes
▁sulph
inement
itively
landers
▁breadth
▁inquiries
▁introduce
▁compliment
▁successive
zes
▁LE
Book
dale
atoes
ennes
▁goss
▁rows
▁accus
▁clust
▁legit
▁penal
▁vigor
▁bloody
▁extend
▁luxury
▁Instead
▁greeted
▁immortal
▁youthful
▁expecting
mun
iour
unci
▁rod
shaped
▁crest
▁etern
▁ordin
▁Friday
▁Oliver
▁Wilson
▁offers
▁rescue
▁Because
▁embrace
▁scenery
▁rejected
▁describes
▁expressions
odes
▁COL
aning
▁Anna
ulties
▁Jerry
▁Gordon
▁agents
▁repair
▁Justice
▁channel
▁crowned
▁doubted
▁plunged
▁victims
▁evolution
▁incapable
▁sustained
▁characteristics
sex
hent
weet
▁Stu
▁enl
▁CHAR
▁ribb
Indeed
▁Could
ressing
rington
▁Valley
▁doubts
▁circular
▁relating
▁admission
▁converted
▁appreciate
'-
:—
serv
wind
▁tie
▁moss
▁spin
▁piano
▁Gentle
▁Peters
▁heroes
▁costume
▁meetings
▁invisible
▁ecclesiastical
Cha
▁AD
andy
away
gone
▁Hug
▁fel
▁Past
▁trim
▁Ellen
▁drama
▁gleam
athetic
▁Common
▁offend
ceptible
▁furious
▁speaker
▁asserted
▁curiously
▁effective
▁encounter
▁favorable
▁producing
_,"
▁Row
▁Belg
▁haul
▁lace
▁stem
forced
▁faire
▁ardent
▁marvel
▁pistol
▁shaken
▁Herbert
▁harbour
▁heights
▁version
▁conclude
▁document
▁sunlight
▁upstairs
▁willingly
▁continuous
▁apprehension
▁representation
.).
NOT
▁je
asse
iage
unks
▁bru
▁cub
▁Mack
▁monot
▁shrew
▁solic
▁Norman
▁fulfil
▁mirror
▁subord
▁harvest
▁winding
▁overlook
▁Australia
▁mechanical
.-
IAM
rad
rag
drew
lest
outs
said
▁bon
▁Spring
▁murmur
▁requis
ensation
▁antagon
▁endless
▁heathen
▁rightly
▁elevated
▁violently
Nor
▁py
iven
rane
▁Ret
gence
▁quot
ustice
▁Relig
▁chuck
▁opera
▁liquor
▁blowing
▁enchant
▁warrior
▁Whatever
▁awakened
▁officials
▁translated
cham
made
alion
oster
▁Tower
▁incor
▁madam
▁margin
▁carries
▁chronic
▁gravity
▁scholar
▁wishing
▁Richmond
▁measured
▁produces
▁uncommon
▁meanwhile
▁sensitive
▁threshold
▁treasures
▁undertake
▁revelation
Ay
.=--
Poor
pels
ifted
▁Grey
▁dies
▁sequ
▁Penns
▁backs
▁Daniel
▁sticks
umerable
▁Babylon
▁Missouri
▁proposal
Ye
riv
▁Ay
▁SH
SILI
ping
▁Cop
▁Jon
▁raw
▁Care
▁Maur
▁beef
▁dine
▁grie
▁ruff
▁tore
ouched
▁Turks
▁bands
▁calam
CHAPTER
▁loudly
▁swords
▁Dorothy
▁fortress
▁memories
▁solemnly
▁imitation
▁representing
DE
,--"
inch
rors
▁Dam
▁bee
▁lip
trees
▁cert
▁cris
▁Athen
▁Lords
▁acute
▁arrow
▁embro
▁thief
▁battery
▁dismissed
▁unwilling
▁undertaking
▁significance
ito
pie
sen
INAL
▁Mun
▁Ter
▁cant
▁shri
▁syll
alling
▁PSILI
▁pupil
▁walks
▁affirm
▁prices
▁towers
▁draught
▁serving
▁villain
▁accurate
▁deserved
▁hopeless
▁eloquence
▁relatives
▁submitted
▁discharged
▁privileges
▁expectation
rum
ader
▁Han
▁cul
woman
▁advis
▁penny
▁saith
▁amidst
interest
▁drowned
▁greatness
▁ornaments
▁spectacle
▁separation
ili
down
orum
qual
▁Gab
▁Sem
ieves
inine
▁Brad
▁Ross
▁asks
▁fors
▁ratt
▁ster
▁creek
▁genus
▁escort
▁oldest
▁breathe
▁clasped
▁obscure
▁footsteps
▁fortnight
Par
spr
acht
aved
pool
▁Bos
▁Wed
raham
▁Hope
▁envy
▁kick
keness
▁Order
▁autom
▁besie
▁polic
▁explos
▁revere
▁tumult
aneously
▁visiting
▁withdrew
▁adjoining
▁forbidden
▁occurrence
▁Westminster
ENI
Char
iche
oped
▁XIV
immer
▁germ
▁goin
▁rede
▁whip
▁Short
▁Simon
▁balls
▁blast
▁faded
▁uneas
▁carbon
▁charms
▁frozen
▁bending
▁imposed
▁warfare
umberland
▁exciting
▁imperial
▁prejudice
▁controvers
▁declaration
HAT
ira
isd
ffic
iend
ilia
pert
▁vow
faced
▁lunch
▁Taylor
▁Within
▁attent
▁orange
▁resort
▁shared
▁smiles
▁bargain
▁brigade
▁glasses
▁disorder
▁landlord
▁twilight
▁Francisco
▁languages
▁neighbors
▁telegraph
▁superiority
kee
asty
uits
▁Dur
chers
ensed
lings
smith
▁deaf
▁nomin
fashion
▁differ
▁hoping
▁overth
▁trifle
▁amiable
▁despite
▁lordship
▁rejoined
▁disciples
▁extremity
▁countrymen
▁surroundings
gic
oli
▁wi
inge
▁Roy
▁eth
▁Brun
▁Give
▁LORD
▁lads
▁rapt
▁welf
mighty
▁finan
pection
▁arrows
▁destiny
▁guessed
▁serpent
▁desirous
▁AM
keys
uese
vous
▁Sid
▁haw
ecess
▁Five
▁Hung
▁Sult
▁stag
olated
▁Earth
▁Plato
▁Theod
▁capit
▁sauce
umbling
▁create
▁clothed
▁confirm
▁lecture
▁madness
▁welfare
▁polished
▁injustice
▁bitterness
▁impatience
Yet
oft
isse
oven
inals
orial
▁Wild
▁belt
▁niece
▁sweep
▁techn
▁carpet
▁harmon
▁termed
▁Library
▁UPSILON
▁benevol
▁estates
▁shouldn
▁civilized
▁exclusively
▁architecture
ogs
folk
wart
aders
▁Blue
▁Hans
▁eman
▁pall
inople
▁Domin
▁adequ
▁brisk
ouncing
▁caution
▁offended
▁proceeds
▁exchanged
▁compassion
▁beautifully
NE
gie
hum
▁XII
▁awe
▁din
▁craw
▁Lewis
▁abuse
▁shops
▁shrewd
▁animated
▁guardian
▁symptoms
▁innumerable
▁transferred
▁Pennsylvania
uy
HAM
upp
▁BL
cible
▁funny
▁prair
▁Horace
▁drunken
▁lowered
▁thanked
▁alliance
▁restrict
je
ani
▁Der
▁Ray
▁jail
▁lent
▁globe
▁tempted
▁childish
▁released
▁speeches
▁stirring
▁continues
▁identical
▁motionless
▁respective
▁yourselves
▁distributed
▁communicated
Two
fish
mont
ront
▁Lis
▁dug
▁Hast
▁cove
▁fare
romise
soever
▁Early
▁cigar
▁games
▁realm
▁aboard
▁commit
▁embark
▁rebels
▁relate
entially
▁bishops
▁briefly
▁concept
▁pulling
▁nobility
▁persuade
▁horseback
▁predecess
▁venerable
▁possessions
Ge
._;
AGE
adj
▁Ast
▁Dal
▁Scar
▁butt
▁enqu
▁Woman
▁decre
▁evils
▁exult
▁horrid
▁Persian
▁product
▁resolute
▁Charlotte
▁Continent
▁answering
ASS
cile
full
▁Kat
▁kid
▁tha
obody
olics
▁Circ
estine
▁amend
▁frown
▁prose
▁worry
▁hunter
▁seeming
▁sustain
▁talents
▁regularly
▁distribution
IB
▁AC
---+
hast
rell
▁MRS
▁woo
heart
iders
isive
▁Walk
▁bees
▁disd
making
oonful
▁defin
▁equip
▁sails
▁types
idences
▁crisis
ountered
▁anguish
▁checked
▁pattern
▁everyone
▁faculties
▁(?
▁XI
▁Tex
apsed
berts
▁Cond
▁Board
▁snake
▁Square
▁canvas
▁expend
▁Mexican
▁mansion
▁Assembly
▁marching
▁unworthy
▁consented
▁readiness
▁contradict
VI
Nay
stri
▁Say
blest
▁boot
▁sear
▁hasty
▁lucky
▁maybe
inently
▁Victor
▁pillow
▁exhibit
▁preceded
▁secretly
▁apparatus
▁protested
▁respected
▁statements
uty
Dear
▁cav
▁syn
▁woe
ulent
▁Capt
▁Crom
▁rasc
▁bench
▁subdu
▁veins
▁Vienna
▁bodily
▁chains
▁hearth
▁Gilbert
▁receipt
▁revenue
▁tribute
▁clergyman
▁dependent
▁encountered
▁superstition
▁Constantinople
sl
ORT
egr
ICAL
mund
▁McC
▁lur
▁spy
▁vag
▁xxx
comed
duced
power
seven
urned
▁Lamb
▁Lanc
▁Sabb
▁Star
versed
▁blown
▁assass
▁latest
▁morrow
▁wasted
▁release
Certainly
▁breathed
▁Scripture
▁complaint
▁Department
▁Everything
▁intentions
▁significant
DA
'--
▁Fal
▁SIR
▁tip
ansas
▁Sing
▁tons
orical
▁Civil
▁Sarah
▁mathe
▁Murray
▁barren
▁ladder
▁packed
▁hideous
▁functions
▁successor
▁Portuguese
▁personally
▁fundamental
may
pin
▁eh
gard
isms
onym
organ
▁Poet
▁team
▁turb
coming
▁Women
▁tents
▁thorn
▁cliffs
▁errand
incerity
munition
▁casting
▁omitted
▁delicacy
▁decidedly
▁complexion
▁contributed
▁proportions
▁Mademoiselle
Even
▁Fur
ainty
apped
▁Luke
▁Than
▁lime
Christ
▁clung
▁nerve
natured
▁African
▁Solomon
▁compare
▁loyalty
▁tongues
▁diseases
▁gigantic
▁indebted
▁assertion
▁obtaining
▁subjected
▁Association
▁unfortunately
oa
Old
bby
▁Cf
▁ov
▁ow
Give
east
▁Hur
▁mol
inety
▁Ever
▁drag
▁tops
▁tram
▁Santa
▁likes
▁ruled
▁Matthe
▁barely
▁hoarse
▁workmen
▁irresist
▁opportunities
ixt
▁Ot
aron
hist
▁Rou
istle
▁bonn
▁lawn
▁pear
▁fraud
▁horns
▁decent
▁preach
▁foliage
▁traffic
▁treason
▁dropping
▁preached
▁resembling
▁inscription
▁Illustrations
▁entertainment
ECT
cus
enz
gus
utt
▁MY
▁Ra
anna
icus
agers
olves
▁Road
▁True
▁parl
▁ther
agraph
ilding
▁Creek
▁Julia
▁Stone
▁VARIA
▁petty
▁Public
▁enters
▁Abraham
▁Anthony
▁Saviour
▁mothers
▁applause
▁ascended
▁consumed
▁response
▁background
▁illustrious
▁interpretation
",
OOD
oir
via
▁Ho
hile
roll
rove
▁monk
sworth
utable
▁Henri
▁Susan
▁bonds
▁uncon
because
▁bronze
▁proofs
▁velvet
▁planned
▁presume
▁secrets
▁curtains
▁latitude
▁likeness
▁seventeen
▁positively
▁wonderfully
IVE
ati
rod
▁Ga
acre
oure
▁mes
▁Whit
▁array
▁epoch
▁posts
actions
▁plague
▁waving
▁battles
▁labours
▁partial
▁session
▁awaiting
▁borrowed
▁regiments
▁ammunition
hill
iere
actor
ccess
▁Half
▁Rand
isting
▁Peace
▁Price
▁relax
▁Alfred
▁covers
▁insign
▁stages
▁circles
▁exclaim
▁fertile
▁goddess
▁rounded
▁virtuous
▁documents
▁ingenious
▁suspicious
▁grandmother
Man
bus
him
voc
▁WH
ucer
▁pad
isten
umble
▁bury
▁clad
▁crop
▁dazz
▁navy
▁puff
▁scent
▁swore
▁bounds
▁cheese
▁warmly
▁removal
▁industri
▁sections
▁appearing
▁deposited
▁inhabited
nto
nty
▁GE
▁ec
inqu
ungs
▁Bey
cular
inkle
▁Mist
▁Soph
▁pave
▁sums
ursday
▁adver
▁brook
lasting
▁allied
▁refres
▁deceive
▁Archbishop
▁addressing
▁attachment
▁inspection
▁traditions
▁contemporary
UG
_"
▁“_
past
uate
ulch
▁Guy
▁Rue
anted
▁Prop
▁Terr
▁foes
▁nour
▁rect
▁theme
▁robbed
▁bedroom
▁leagues
▁invasion
▁Catholics
.~
OME
hur
ota
▁AS
▁Sa
aton
comm
odge
▁Sic
adies
oughs
▁BOOK
▁Note
▁bits
ialect
▁chant
version
▁theirs
▁holiday
▁sublime
fashioned
▁enclosed
▁attendant
ITT
▁PE
Phil
amph
▁bef
▁tap
▁vex
▁Abbey
▁guine
▁punct
▁shaft
▁Legisl
▁intrig
▁overfl
▁shouts
▁unseen
▁Academy
▁captive
▁Nicholas
▁negative
▁generosity
▁substantial
▁representatives
Life
gery
phan
▁wip
First
▁duly
▁feud
▁lots
▁mule
▁vind
▁Isaac
▁roast
▁spear
History
▁Sultan
▁corrid
▁damage
▁cooking
▁defiance
▁peasants
▁sanction
▁welcomed
▁dignified
mus
anor
elia
vial
▁Bow
▁SEC
anche
arers
inton
▁Does
▁leap
▁link
▁Later
▁Stand
▁remon
general
▁harbor
▁reaches
▁Philosop
▁decorated
▁historian
▁spreading
▁perception
▁anticipated
▁tune
▁viii
▁Adams
▁Beaut
▁renew
▁Social
▁boards
▁concert
▁deepest
▁inspect
▁manager
▁perplex
▁weighed
▁enjoying
▁ministry
▁corrected
▁indignant
▁uncomfort
▁descending
▁thoughtful
▁personality
▁enthusiastic
OLD
ban
▁GR
▁Ni
ethe
imum
▁Soc
▁nit
stein
▁Lion
▁limb
▁fluid
▁lakes
▁advise
▁excite
▁Country
▁appoint
▁baggage
▁Something
▁contrived
▁prolonged
▁complained
▁fashionable
▁appreciation
fly
lan
isen
oust
thel
▁Bad
▁Big
▁Duc
▁Hud
▁LAM
▁Ped
▁Way
▁dru
▁gau
▁maj
icles
▁fret
▁Byron
▁compr
▁lamps
▁lodge
▁spake
▁taxes
▁accent
▁allies
▁gospel
▁jurisd
▁planet
▁Between
▁Russell
▁defined
▁farmers
▁staying
▁worldly
▁arriving
▁embraced
▁potatoes
▁literally
▁startling
▁supposing
▁thickness
▁vegetable
▁instructed
Pe
IRE
▁ED
▁Ess
▁Eug
▁HIS
▁Pad
▁veh
every
ocity
pence
▁Suff
▁rash
▁debts
▁hired
▁corpse
▁dishes
▁excurs
▁sullen
omething
▁energet
▁lodging
▁ambitious
▁indispens
▁hospitality
▁constitutional
▁Wr
ieth
▁Cec
▁Inc
▁Ram
eties
guard
▁Cour
▁Herm
▁Juan
▁earl
▁poll
▁vale
▁Edith
▁astron
▁decree
▁heated
▁riches
▁Bernard
▁compact
▁doctors
▁selling
▁valleys
▁approval
▁rational
▁attending
▁customary
▁declaring
▁partially
▁consolation
▁commencement
▁imprisonment
Sp
uzz
▁AB
▁Tar
▁Ted
joice
liest
▁Clar
▁Fire
▁Much
▁emig
▁nigh
London
▁chill
▁sends
▁sixth
▁skies
▁wreat
uminous
▁Gerald
▁Squire
▁awhile
▁commod
▁despot
▁insens
▁uneasy
▁dresses
▁economy
▁relieve
▁someone
▁substit
▁sulphur
▁torrent
▁varying
▁desolate
▁paragraph
▁substances
▁Accordingly
TY
bi
ext
imo
tin
eled
oons
▁git
eller
▁FOOT
▁Hosp
▁ripe
orship
▁rebel
▁courte
▁divide
▁melted
▁proves
▁Journal
▁Prussia
▁equival
▁multipl
▁Highness
▁chemical
▁horizont
▁procured
▁apartments
▁succeeding
▁essentially
_!
▁gn
gered
▁CONT
▁cows
▁dirt
▁pony
▁shat
▁tren
▁Clara
▁Hotel
▁Moore
▁prett
▁sworn
idelity
▁coffin
▁ending
▁trials
▁circuit
▁feeding
▁prudent
▁reverse
▁Scottish
▁rapidity
▁realised
▁circulation
IND
ISP
atum
▁Balt
▁Bapt
▁kins
▁sack
▁sofa
▁tack
▁Treat
▁coinc
▁locks
▁perse
▁tread
▁wrest
▁Messrs
▁danced
▁facing
▁hanged
▁patent
▁Science
▁comrade
▁extingu
▁frankly
▁monster
▁remorse
▁convince
▁depended
▁hesitate
▁apprehend
▁corruption
▁proclaimed
Ed
eys
▁xv
cian
▁Mis
▁Pel
▁Rad
▁jun
neath
ooner
▁caps
▁Moham
▁Upper
▁basin
▁couch
▁stove
▁width
▁Morris
▁martyr
▁poetic
▁sheets
▁Charlie
▁fitting
▁grasped
▁lifting
▁wealthy
▁winning
▁Victoria
▁severity
▁ultimate
▁processes
▁sweetness
▁cheerfully
▁glittering
▁constituted
LEY
pre
▁gy
fire
▁Cru
Their
▁None
▁pomp
▁semi
▁shine
icating
▁Review
▁brandy
▁destro
▁tossed
▁justify
▁nowhere
▁washing
▁deceased
▁promising
▁withdrawn
▁manifested
▁objections
▁descendants
▁deliberately
és
.”[
▁ff
igan
riel
▁HER
▁Hun
green
icism
ranch
▁Tomm
▁Year
▁herd
▁pint
▁robe
▁unhe
▁brows
▁hydro
▁jolly
▁porch
▁trous
▁shower
▁sprung
▁Sabbath
▁awaited
▁notions
▁Columbus
▁repaired
▁Bonaparte
▁preaching
▁eventually
▁excellence
▁properties
AW
Dr
Gu
ATH
Com
aug
nie
▁si
fles
glas
osis
▁Loc
▁Occ
▁umb
Would
cheon
eline
oland
▁Brah
▁Kenn
▁Rest
arming
▁FINAL
▁Monte
▁opens
▁piety
▁poles
▁spoil
▁Roberts
▁illumin
▁shallow
▁disaster
▁youngest
▁struggled
▁ceremonies
▁faithfully
▁obligation
▁superintend
sk
did
tre
tion
▁Cow
▁Sup
acent
arant
▁fant
▁meek
▁tiss
alogue
▁Blake
▁alien
▁hered
▁intol
▁manly
▁recru
▁upset
▁bundle
▁chival
▁chorus
▁gossip
▁oppose
▁teleph
▁wildly
▁wretch
▁faintly
▁appealed
▁catching
▁recovery
▁attempting
▁attendance
▁stretching
amy
▁jar
▁pas
craft
gings
▁bows
▁bulk
▁gale
▁Agnes
▁Mayor
▁bliss
▁conve
▁decay
▁arbitr
▁brains
▁burial
▁dainty
▁disreg
▁Barbara
▁adorned
▁dreaded
▁lighter
▁tightly
▁diamonds
▁foremost
▁receives
▁extension
▁terrified
▁discretion
▁ascertained
PP
sor
try
APPA
kers
rete
▁Els
▁Pas
▁XVI
▁XXX
▁jer
dened
▁Call
▁Pont
▁dash
▁shudd
▁split
▁Indies
▁adjust
▁accuracy
▁expressing
▁vegetables
ONG
ello
erem
▁Cub
Shall
▁cars
▁epit
▁hats
▁haue
▁owed
Americ
▁Saxon
▁gover
▁paths
▁apples
▁emphat
▁sports
▁buffalo
▁cigaret
▁happier
▁relates
▁twisted
▁abstract
▁allowing
▁grandeur
▁hypothes
▁misunder
▁monsieur
▁slaughter
▁influenced
▁suspicions
▁Illustrated
.:
Sec
hon
nox
tra
▁Id
MENT
▁sep
itzer
ppers
▁Clay
▁XIII
▁joys
▁KAPPA
▁blush
▁enact
▁Friend
▁Naples
▁Stuart
▁rubbed
▁plunder
▁Mountain
▁disguise
▁governed
▁problems
▁reaction
▁occasioned
▁jurisdiction
Gl
ja
ERN
gle
▁ft
adle
aste
twas
ettle
inous
itably
▁Power
▁grove
▁impet
▁ineff
▁patch
▁rests
▁sheer
▁strip
▁corpor
▁perish
▁player
▁tracks
▁angrily
▁borders
▁decline
▁orchard
▁slumber
▁subdued
▁Austrian
▁believes
▁defended
▁inserted
▁particip
▁products
▁sympathetic
.+
▁gi
▁Lab
class
first
mates
viour
▁glor
▁sket
itical
spring
▁Davis
▁Mason
▁clasp
▁flank
▁intox
▁plent
▁barrel
▁guided
▁hammer
▁ninety
▁shades
▁Gregory
▁Kingdom
▁outrage
▁refusal
▁seasons
▁seventh
▁whistle
▁analysis
▁generals
▁perished
▁examining
▁obviously
▁sparkling
▁constitute
▁eighteenth
▁principally
?’
sq
ANS
run
▁PI
odox
▁Syl
▁hue
▁lou
annah
human
icker
▁Cook
▁Dear
▁Full
▁Vinc
▁hoof
▁recl
▁soup
▁Creat
▁Jimmy
▁entry
▁meals
▁Morgan
▁joyous
▁helping
▁Oriental
▁Thursday
▁detailed
▁dreaming
▁festival
▁patients
▁estimated
▁prosperous
hs
Mon
aze
▁ME
Such
ctic
ells
osal
town
xton
▁Bol
▁RHO
▁diet
▁riot
▁stub
bation
encing
▁Horse
▁Venet
▁blend
▁patri
▁rider
▁skins
▁tools
inkling
nothing
▁echoed
▁pepper
▁reduce
▁FOOTNOT
▁deserves
▁retorted
▁securing
▁settlers
▁fulfilled
▁recognise
▁staircase
▁sacrifices
▁suppressed
▁inheritance
▁indispensable
▁considerations
Say
verb
▁Cic
▁Pil
▁hol
▁poo
▁rab
▁sou
▁memb
▁unqu
haired
▁Press
▁Roche
▁Third
▁explo
▁reass
▁tramp
▁gasped
▁Himself
▁fiction
▁profits
▁agitated
▁studying
▁falsehood
▁monastery
▁stationed
▁effectually
!’
bod
bri
gil
aned
aude
cott
name
▁COMP
▁alco
▁bowl
▁glac
▁pope
▁sits
▁unsu
uesday
▁Madam
▁Satan
▁cooked
▁dismay
▁dollar
▁dreary
▁faster
▁volcan
▁Chamber
▁alluded
▁floated
▁refresh
▁tempest
▁terrace
▁greeting
▁frightful
▁swallowed
ANC
▁Tu
must
pres
requ
▁ETA
▁Lat
gency
▁oars
▁Bacon
▁Scots
▁blaze
▁funds
▁lemon
▁rever
▁Howard
▁Hudson
▁beggar
▁cavern
▁impass
▁parson
▁cordial
▁dislike
▁penalty
▁Kentucky
▁Mohammed
▁despised
▁harmless
▁thankful
▁carriages
▁inflicted
▁attraction
ym
ONS
▁Tha
anton
vings
▁Alas
▁oven
▁wits
▁Clark
▁Fanny
▁dates
▁stake
▁Excell
▁Surely
▁breach
▁button
▁gloves
▁solely
▁dialect
▁sincerity
▁reflections
▁righteousness
Any
cap
▁'_
ench
▁esp
▁dost
▁lane
giving
▁Devil
perhaps
▁breaks
▁expand
▁incess
▁meadow
▁onward
▁richly
▁tavern
========
▁pushing
▁Almighty
▁Canadian
▁allusion
▁fiercely
▁murderer
▁alongside
▁hurriedly
▁professed
▁incredible
▁conclusions
▁philosophers
REN
ete
hot
kel
lam
upt
▁Ze
gins
▁Above
▁Kitty
▁crazy
▁divor
▁elbow
▁flows
▁paces
▁Madrid
▁Palmer
▁device
▁earned
▁musket
▁prelim
▁trades
▁causing
▁factory
▁stamped
▁tyranny
▁revolver
▁consulted
▁oppressed
▁cautiously
▁infinitely
▁impatiently
▁encouragement
):
:/
Car
phy
▁na
angs
give
hara
hole
▁Yor
being
▁cake
▁fabr
▁vile
ulsive
▁plane
▁tooth
▁reveal
▁simult
▁Georgia
▁Matthew
▁manhood
▁Campbell
▁locality
▁tenderly
▁unreason
▁assistant
▁monuments
▁whereupon
▁peculiarly
hu
Had
cht
una
▁Ur
esse
oirs
▁HAR
inged
onial
▁lamb
▁surf
asmuch
iantly
ombard
▁Liver
▁Robin
▁brute
ivities
reading
▁Forest
▁Method
▁Milton
▁Maurice
▁alleged
▁bidding
▁strikes
▁dominion
▁economic
▁enlarged
▁objected
▁behaviour
▁excessive
▁undertook
▁undertaken
▁persecution
▁suggestions
▁philosophical
dam
Upon
emen
eron
▁Aff
▁Vic
▁viv
elson
▁Batt
▁Moor
▁bred
▁cage
▁shew
velope
▁Liter
▁fools
▁hears
▁Harold
▁costly
▁crowds
▁devote
▁flowed
▁mouths
▁shrill
▁Federal
▁ceiling
▁critics
▁females
▁glances
▁guarant
▁include
▁ringing
▁roughly
▁statues
omination
▁detected
▁shepherd
▁Frenchman
▁continual
▁insignific
▁legitimate
▁missionary
://
OCK
lig
▁yo
nant
▁Lor
▁kin
▁sam
▁tab
archy
▁Joan
▁Phys
▁Wolf
▁rosy
ishers
▁Eight
▁bunch
▁gramm
▁yacht
▁cursed
▁Mission
▁WILLIAM
▁candles
▁primary
▁declares
▁engineer
▁prophets
▁sergeant
▁offensive
▁treachery
TO
odd
ths
▁Ta
ENCE
▁Dave
▁gilt
▁goal
▁peep
▁pest
▁plum
▁prow
atches
ometer
▁aught
▁deleg
▁ruler
▁veter
▁wider
▁jacket
▁highway
▁Cromwell
▁esteemed
▁involunt
▁miracles
▁printing
▁reckoned
▁squadron
▁stations
iterranean
▁propriety
▁Chancellor
▁bewildered
▁equivalent
▁oy
isle
▁Log
▁Tow
▁civ
▁era
icide
▁Glad
▁Work
▁gird
▁Story
▁chast
▁folds
▁scept
▁append
▁hypocr
▁strife
▁truths
▁essence
▁revived
▁systems
▁identity
▁prudence
▁westward
▁allowance
▁dissolved
▁exercises
▁foreigners
▁phenomenon
▁pleasantly
▁everlasting
IFE
agu
ecd
bird
▁mos
aware
esses
ombre
▁Josh
▁bite
▁spur
entric
ignant
▁miser
▁quote
▁anyhow
▁bestow
▁debate
▁headed
▁plough
▁prostr
▁Antonio
▁Douglas
▁Stanley
▁carpent
▁endowed
▁massive
▁peoples
▁typical
▁compound
▁decisive
▁fragment
▁terribly
▁theology
▁distances
▁despatched
▁proprietor
.(
bag
lit
▁ej
▁oz
cons
▁Tru
▁mic
▁stu
▁ton
ifice
▁Bath
▁keys
broken
owered
▁humil
▁knelt
▁robes
▁Intern
▁intern
▁affords
▁haughty
▁organic
▁pouring
▁quitted
▁traitor
▁adequate
▁eloquent
▁equality
▁hurrying
▁isolated
▁reckless
▁resulted
▁searched
▁exceeding
▁sixteenth
▁Convention
▁submission
▁ultimately
▁congregation
ya
Har
▁cf
▁Pom
▁Wol
▁cum
idity
inois
maker
suing
nesday
strong
▁Guard
▁Milan
▁moves
▁pipes
▁Fortun
▁Rachel
▁assign
▁ounces
▁pencil
▁unanim
▁Senator
▁rejoice
▁resolve
▁climbing
▁downward
▁trifling
▁expensive
▁inconsist
▁secondary
▁agricultural
▁é
Obs
cca
anse
comp
▁ray
----+
▁dans
▁halt
▁orth
▁whar
▁Allen
▁Sally
▁anecd
▁exile
▁illum
▁nails
▁Bright
▁Jersey
▁Winter
▁angles
▁cellar
▁imagin
▁titles
▁emerged
▁explore
▁pilgrim
▁tidings
▁wonders
▁eternity
▁confounded
▁headquarters
▁:
olo
rah
▁Av
▁Mu
nels
ntil
path
▁Var
arned
encer
utton
▁Cass
▁Mind
▁secl
ATIONS
venant
▁Nancy
▁breed
ropolis
▁Arnold
▁arises
▁harder
▁malice
▁pledge
▁commend
▁extends
▁boundary
▁feminine
▁glancing
▁machines
▁resemble
▁sweeping
▁trousers
▁Certainly
▁magistrate
▁sacrificed
▁Mediterranean
;[
▁Jup
▁sag
ONDON
anger
cloth
grand
matic
▁Glen
▁clut
▁hasn
insula
ippers
olitan
worthy
▁creed
ference
▁avenue
▁discom
▁throws
▁disdain
▁gradual
▁oppress
▁skilful
▁mourning
▁proclaim
▁indefinite
▁communicate
▁legislation
▁supposition
▁uncomfortable
aza
oux
▁Eli
▁Nov
riers
thorn
ureau
▁Thee
▁Bless
▁alert
▁coron
▁crops
▁drown
▁fails
▁doings
▁lodged
▁screen
-------+
▁Leonard
▁arising
▁failing
▁refined
▁shorter
▁clearing
▁disposal
▁resigned
▁Mountains
▁eagerness
▁portraits
▁regretted
▁rendering
▁springing
▁associations
▁interference
▁irresistible
[_
▁ix
ihil
pole
▁ced
▁lev
bound
could
▁Merc
▁chal
udding
▁draws
▁luxur
▁pamph
▁repet
▁Others
▁roared
▁Letters
▁praised
▁radiant
▁Regiment
▁beauties
▁evenings
▁favoured
▁rejoiced
▁cherished
▁memorable
▁splendour
▁supernatural
GH
hab
▁Il
▁ay
:--"
King
mill
yers
▁Bir
▁Nan
▁exh
ulses
▁Braz
▁Gent
▁Navy
▁Nell
▁Nort
▁ecst
▁tame
▁adult
▁ropes
▁stoop
▁unacc
▁homage
▁posted
▁endured
▁haunted
▁reigned
▁schemes
▁tremble
▁vaguely
▁Produced
▁pretence
▁exertions
▁ambassador
▁carelessly
▁diminished
';
IAL
oyd
say
▁ou
▁Ren
▁Sab
▁Tob
▁hen
ublin
▁Aust
▁Benj
▁Stat
▁ante
▁exal
▁fres
▁sect
change
dinand
ndered
ouring
▁Corps
▁Percy
▁Think
▁mirth
▁pilot
▁wiser
▁Golden
▁dearly
▁vacant
▁vigour
▁honesty
▁duration
▁husbands
▁overhead
▁efficient
▁intensity
▁substitute
▁victorious
▁controversy
▁discoveries
▁thoughtfully
Ap
CL
oug
ORGE
▁ecl
▁tom
chair
plete
raged
works
▁Beth
▁Harr
▁Maid
▁reads
itories
▁Letter
▁assail
▁salary
▁tastes
▁envelop
▁neutral
▁sorrows
▁mathemat
▁schooner
▁barbarous
▁shattered
▁wholesome
▁attendants
▁contracted
▁deliberate
▁industrial
▁improvements
pa
tte
oled
rude
found
▁loos
ifting
pecial
▁Tommy
▁hedge
respect
▁Martha
▁Persia
▁armour
▁insect
▁refers
▁strove
▁tricks
▁whites
▁despise
▁honours
▁kindred
▁workers
▁Cornwall
▁Russians
▁interven
▁theories
▁financial
▁Alexandria
▁presenting
▁remarkably
▁differently
▁seventeenth
▁accompanying
▁missionaries
ko
ENS
hov
▁Ce
▁PO
▁QU
apes
chie
frey
hour
▁Yan
▁cos
▁ora
ISPOM
bster
ellig
opher
udder
▁Make
▁Norm
▁beam
▁cruc
urable
wealth
▁Phill
▁aided
▁await
▁piled
▁unite
▁Family
▁approx
▁morals
ISPOMENI
▁baptism
▁sheriff
▁thyself
itzerland
▁blankets
▁trenches
▁dedicated
▁detective
▁honorable
▁conference
▁PERISPOMENI
roc
▁FL
bone
peak
▁CAR
▁Acts
▁Gene
▁Nile
▁fist
▁flut
▁pige
▁pump
▁rebu
▁Works
▁dined
▁forfe
▁mirac
▁paste
▁rural
thought
▁expert
________
▁Paradise
▁achieved
▁suggests
▁sentences
▁illustrate
▁astonishing
El
Gr
Me
YN
arf
igo
oni
alle
cond
gies
otal
otle
rett
▁Dry
▁Rap
▁nod
aphys
court
iscop
ummer
▁wist
▁Plate
▁Welsh
▁choir
▁lined
▁monop
▁penit
▁roofs
▁thumb
berries
▁agency
▁scales
▁picking
▁pillars
▁pleaded
▁Columbia
▁energetic
▁Confederate
▁disturbance
▁universally
▁descriptions
FN
ni
Bet
INC
Ple
Que
ttp
chus
poss
▁Ern
▁aer
▁ale
amous
vered
▁Cort
▁fath
▁quad
▁asser
▁blade
▁laden
▁lance
ocation
▁Gothic
▁coldly
▁devout
▁labors
▁potent
▁stooped
▁challenge
▁conferred
▁downstairs
▁Switzerland
▁comparative
▁settlements
".
oda
▁TW
▁WE
Ibid
augh
boats
icket
▁Evan
▁Stud
▁dusk
▁mask
▁oxen
itches
urning
▁Ghost
▁mustn
▁sandy
writing
▁amazed
▁anyway
▁blocks
▁madame
▁orator
▁ragged
▁rugged
▁sealed
▁serves
▁bottles
▁lasting
▁phrases
▁richest
▁visions
▁cylinder
▁fidelity
▁gorgeous
▁imposing
▁mentions
▁repeating
▁dimensions
▁temperament
xx
ROW
duc
esp
lee
oks
tar
▁Ul
ANCE
avia
etta
itus
xter
▁Jun
Which
▁Girl
▁anti
▁cate
▁coco
▁ware
estone
▁Anglo
▁Emily
▁pairs
▁scram
▁skirm
without
▁Graham
▁Turkey
▁advert
▁finely
▁revolt
▁squire
▁trunks
▁Foreign
▁aggress
▁behaved
▁garment
▁prevail
▁Illinois
▁Montreal
▁birthday
▁observer
▁resembles
▁unusually
▁Petersburg
▁prejudices
▁provincial
▁resentment
▁fascinating
▁fortunately
▁foundations
cur
▁MA
chal
enne
hind
love
vice
▁Bou
▁XXV
▁mit
▁Tart
▁anci
▁pion
▁plus
▁bayon
▁dares
▁vigil
▁Garden
▁casual
▁comedy
▁preval
▁blanket
▁cabinet
▁notable
▁prairie
▁proudly
▁trumpet
▁Portugal
▁annually
▁pathetic
▁striving
▁classical
▁opponents
▁obligations
ongs
▁Get
elfth
great
grown
inian
▁Happ
▁ramp
estial
▁crash
▁crust
▁panic
▁today
ishable
ulously
▁arisen
▁canoes
▁flocks
▁parlor
▁tragic
▁Clement
▁concerns
▁poetical
▁refusing
▁Englishmen
▁conspiracy
▁conversion
▁forgetting
▁precaution
▁sensations
▁destination
▁regulations
▁possibilities
Mem
lic
sub
top
,"--
Lady
REAT
ando
▁Ark
▁Few
▁ost
Those
epend
rings
rophe
▁Free
▁cush
▁penn
▁soap
strous
▁Small
▁aimed
▁layer
▁plead
▁pulse
▁spont
▁sunny
▁tenth
lements
▁Dublin
▁hurled
▁invite
▁storms
▁stormy
▁trains
▁valued
▁Jupiter
▁hunters
conscious
▁modified
▁removing
▁sciences
▁FOOTNOTES
▁Jefferson
▁sheltered
▁southward
▁profitable
▁spectators
;'
KE
▁Az
iser
oire
page
▁Ald
▁bub
▁ted
ilies
▁Shar
▁shoe
advant
rehens
▁Annie
▁recip
▁Twenty
▁bother
▁lawful
▁league
▁authent
▁gaining
▁pierced
▁advertis
▁amounted
▁envelope
▁publicly
▁Ferdinand
▁mysteries
▁collecting
▁popularity
▁overwhelmed
Fl
Art
dis
fit
arks
orig
pine
▁Jos
▁PAR
▁bou
▁Foot
▁Gods
▁stif
▁urge
angled
castle
rating
▁Johan
▁cakes
▁coats
▁finer
▁Quebec
▁destru
▁hazard
▁relics
▁virgin
▁Florida
▁annoyed
▁blazing
▁bounded
▁roaring
▁Thompson
▁corridor
▁counting
▁swimming
▁northward
▁requisite
▁sincerely
▁possessing
▁convenience
▁remembering
▁preservation
▁unconsciously
OSE
ava
div
oso
zer
▁DR
BERT
Does
ITAL
empl
shot
▁Fil
▁Raj
▁axe
▁cad
Great
acies
athan
books
estab
eting
▁Cher
▁Made
▁Owen
▁baff
▁lass
▁lazy
▁mare
▁sund
rances
▁Bohem
▁Burke
▁Cloth
▁Venus
▁actor
▁mules
▁reins
▁squee
▁Darwin
▁Fourth
▁Marian
▁Orange
▁graves
▁herald
▁infirm
▁inland
▁Spencer
▁Tuesday
▁approve
▁banquet
▁granite
▁militia
▁palaces
▁touches
▁historic
▁remonstr
▁Liverpool
▁blessings
▁posterity
▁technical
▁attributes
▁continuing
▁hypothesis
▁prevailing
▁university
uis
▁..
▁MU
Pres
boys
icut
itic
sery
ygen
▁Bea
▁Pra
athed
borne
stock
▁Gulf
▁Psal
▁Tham
▁harp
▁cargo
▁disob
▁token
▁Cousin
▁hinder
▁shapes
▁Patrick
▁barrier
▁bravely
▁furnace
▁located
▁whoever
▁Hospital
▁detached
▁competent
▁inherited
▁persisted
▁providing
▁stockings
▁exhibition
▁patriotism
▁competition
yd
iry
ABLE
dish
icia
lorn
▁Ord
▁Sin
▁lib
aters
iddle
▁Ages
▁grip
▁hail
▁Gener
▁besee
▁flags
▁suits
▁bridle
▁mantle
▁orphan
▁wisely
▁degener
▁delayed
▁scatter
▁summons
▁converse
▁magazine
▁pavement
▁softened
▁exclusive
▁struggles
▁supporting
▁electricity
▁embarrassment
**
gi
hr
---
sar
azar
imus
▁Fab
child
▁Aven
▁Ford
▁Publ
▁Vers
▁cane
▁jaws
Father
Mother
itness
should
▁chlor
▁flush
▁foret
▁physi
▁whale
taining
▁Almost
▁Marion
▁integr
▁rifles
▁tribun
▁fancies
▁fearing
▁proverb
▁whereby
▁Children
▁Sergeant
▁restrain
▁intensely
▁Scriptures
▁describing
▁discussing
▁henceforth
▁restoration
▁sentimental
▁proclamation
Ke
ww
ENE
ben
▁("
skin
▁Cad
▁Set
▁Wag
▁gal
onian
▁Soul
▁cups
▁poly
▁sway
hement
opular
▁Notes
▁Times
▁bount
▁eagle
▁juice
▁melod
▁ports
▁rites
▁vices
istered
▁befall
▁expans
▁serene
▁wagons
▁chanced
▁engines
▁exalted
▁municip
▁players
▁sadness
▁cautious
▁discoura
▁eastward
▁Aristotle
▁destitute
▁patriotic
▁tranquill
▁announcement
;”
Ant
Hen
ILD
cow
god
bage
cius
ften
▁Ali
▁Haz
cules
▁DEAR
except
ivable
▁Caval
▁Harri
▁Shell
▁aspir
▁brace
▁curve
undered
▁Sweden
▁dismal
▁ensued
▁improb
▁joyful
▁unique
▁binding
▁crystal
▁Robinson
▁attorney
▁constitu
▁energies
▁accounted
▁obstacles
▁preference
▁appearances
▁comfortably
▁overwhelming
▁strengthened
▁superstitious
—_
."]
abs
ori
www
cket
orie
▁Khan
▁Must
▁aren
▁cust
▁dial
▁knot
▁sire
▁Staff
▁Texas
▁embod
▁swing
▁tiger
umbered
▁argued
▁impert
▁keeper
▁novels
▁plaint
▁unkind
▁viewed
▁Philipp
unciation
▁Augustus
▁Religion
▁Remember
▁bleeding
▁endeavor
▁indirect
▁annoyance
▁eccentric
▁quivering
▁unnatural
▁voluntary
▁Wellington
▁imprisoned
▁interruption
INS
usp
supp
▁DEL
emper
illon
▁Horn
▁guid
▁pert
▁reef
▁olive
▁scrut
▁stare
▁LONDON
▁liking
▁obstin
▁porter
▁footing
▁swallow
▁verdict
▁drawings
▁flashing
▁indulged
▁numbered
▁stealing
▁treatise
▁captivity
▁obstinate
▁assumption
▁exceptions
▁navigation
ali
olve
onge
occup
▁Poly
▁Stew
▁doom
▁fuel
▁huts
▁mand
enched
racter
school
▁Spart
▁logic
▁lungs
▁remed
▁seeks
▁spoon
▁Edmund
▁Saints
▁assent
▁bonnet
▁libert
▁commiss
▁logical
▁precept
▁renders
▁vicious
▁chambers
▁distrust
▁enforced
▁perilous
▁Wednesday
▁batteries
▁candidate
▁patiently
▁contribute
▁complicated
ORN
URN
die
nor
▁CR
▁IT
ENER
bred
mate
rigg
rosc
▁Det
▁Eff
▁Lib
▁bot
ITION
chand
ignty
ribes
these
▁Assy
▁Buff
▁gild
▁gulf
▁logs
▁usur
jected
▁Books
▁aloft
▁Johnny
▁hasten
▁reappe
▁rulers
▁unfold
▁Charley
▁Supreme
▁groaned
▁indulge
▁invalid
▁meadows
▁modesty
▁thieves
▁warlike
roduction
▁clinging
▁exterior
▁rewarded
▁yielding
▁afflicted
▁disadvant
▁expressly
▁forthwith
▁beforehand
▁penetrated
▁prescribed
▁repeatedly
▁productions
▁resolutions
▁respectively
BY
ij
Get
Rem
enet
eren
inia
into
nine
▁Ken
▁ful
▁rip
▁tel
unity
passed
▁Felix
▁cited
forward
terbury
▁Butler
▁Louise
▁ascent
▁devils
▁pastor
▁shrine
▁thrill
▁waking
▁Trinity
▁alcohol
▁handful
▁harness
▁pension
▁program
▁darkened
▁honestly
▁instruct
▁prophecy
▁telegram
▁vehement
▁generously
▁horizontal
▁nineteenth
▁appreciated
▁relationship
ACH
sea
aman
mons
onne
▁WAR
icans
▁stew
atical
rowing
velled
▁Bruce
▁Geoff
▁Lower
▁Molly
▁emble
▁needn
▁phant
ologist
▁Nelson
▁Steven
▁Thames
▁doomed
▁pearls
▁triang
▁wrongs
▁bullets
▁parlour
▁assented
▁lodgings
▁moisture
▁obedient
▁partners
▁spending
▁swinging
▁painfully
▁prospects
▁worthless
▁depression
▁oppression
▁originated
▁ornamented
▁unquestion
▁extravagant
▁preliminary
▁civilisation
REW
ubb
orph
rise
▁Aut
▁Coo
▁Fro
▁Jen
▁jaw
▁nap
hovah
▁(?),
▁hood
▁loft
▁Dolly
▁Herod
▁Round
▁creep
arewell
atching
▁Apollo
▁darted
▁louder
▁ribbon
fortunes
▁Natural
▁emancip
▁noblest
▁panting
▁adoption
▁chapters
▁lingered
▁stripped
▁Cathedral
▁monstrous
▁utterance
▁Excellency
▁variations
▁surrendered
▁administered
▁concentrated
_.]
vre
zar
AMES
Thus
▁Die
▁Som
geons
icent
obile
▁KING
▁powd
▁shan
▁void
atrice
harine
ronted
▁Ocean
▁ditch
▁drain
▁impud
▁jewel
▁liver
▁meets
hampton
▁Battle
▁Cicero
▁Easter
▁connex
▁disast
▁grains
▁humbly
▁melody
▁scanty
▁Marshal
▁founder
▁hostess
▁suffice
▁breeding
▁creeping
▁engraved
▁humility
▁dissatisf
▁qualified
▁societies
▁allegiance
▁decoration
▁exaggerated
▁magistrates
▁entertaining
?_
vard
weed
wixt
▁Cut
▁MSS
▁Sie
▁fow
While
ernon
▁Cair
▁Fate
▁Near
▁Quar
▁Troy
▁cats
▁padd
▁sarc
▁yawn
anners
▁Whose
▁farms
▁herds
▁quoth
▁sangu
▁shrie
▁vexed
▁Harris
▁Person
▁brutal
▁coolly
▁enumer
▁pulpit
▁Eleanor
▁horrors
▁seizing
▁thickly
▁threads
▁advances
▁pursuing
▁wondrous
▁admirably
▁affecting
▁arbitrary
▁momentary
▁overlooked
▁Christopher
▁consumption
▁exclamation
▁passionately
▁peculiarities
ALE
ANG
oil
put
iley
vate
year
▁ALL
▁Bod
▁ath
▁cem
▁dip
▁pac
▁seq
▁unb
ender
stood
third
▁Andy
▁asse
▁cuts
▁pays
▁pigs
ickens
▁Broad
▁Ethel
▁Pedro
▁illeg
▁irrit
▁modes
issance
▁Nether
▁fishes
▁kisses
▁metals
▁Chester
▁admiral
▁ascribed
▁especial
▁fragrant
▁skeleton
▁snatched
▁conscient
▁fifteenth
▁imaginary
▁referring
▁tolerably
▁transparent
▁troublesome
EGA
iva
sett
thus
ware
▁Cos
▁Dom
allow
riend
▁Gaul
▁Glou
▁Jove
▁Know
▁Main
▁Sout
▁foll
▁goat
▁jung
▁muff
▁palp
▁sadd
orting
rified
▁Patty
▁Proof
▁Stock
itative
onymous
tenance
▁Maggie
▁arches
▁backed
▁vainly
▁wolves
▁Corinth
ufficient
▁Benjamin
▁deposits
▁resident
▁contempor
▁magnitude
▁policeman
▁acceptance
▁accurately
▁consistent
▁repetition
Ha
isy
nis
cery
▁ENG
▁Mme
▁SER
▁loo
otent
quest
▁Bear
▁Desc
▁Salt
▁cran
▁loaf
▁turf
chance
ieving
remacy
umbers
▁LAMDA
▁Minor
▁Sweet
▁admon
▁dwarf
▁excav
▁mayor
▁redou
▁voted
emption
mediate
▁Roland
▁catast
▁guides
▁hounds
▁scared
▁tyrant
▁apprent
▁rubbing
▁spoiled
▁whereof
▁certific
▁honoured
▁horsemen
▁communion
▁pronounce
▁telephone
▁uneasiness
▁subordinate
?-
YS
_?
oi
!_"
anz
cas
dal
gow
gue
new
urel
▁Ach
▁Ale
▁Ari
▁Bee
▁HOW
▁ank
▁lac
Enter
Still
their
▁hire
▁ment
▁perv
▁ties
▁heres
▁toast
------+
▁Beyond
▁GEORGE
▁dissip
▁losses
▁sombre
▁convert
▁freight
▁publish
▁Infantry
▁admiring
▁blossoms
▁nineteen
▁backwards
▁expresses
▁statesman
▁interposed
▁underneath
!)
pg
nde
uly
uma
▁AE
More
_.--
heim
urdy
▁Age
▁Bag
▁Mit
▁Syd
▁mak
▁nun
▁ses
inisc
▁Laws
▁Lore
▁crum
▁depl
▁fits
▁foss
▁prox
▁woke
Little
formed
imited
▁OMEGA
▁talks
▁wears
▁Guards
▁Miller
▁Silver
▁copied
▁cradle
▁dagger
▁genial
▁gravel
▁indisc
▁multip
▁weaker
▁Suppose
▁monoton
▁pitched
▁promote
▁shudder
▁Magazine
▁emphasis
▁includes
▁marrying
▁mistakes
▁terrific
pendicular
▁cigarette
▁gratified
▁ingenuity
▁restraint
▁consequent
▁projecting
▁consecrated
▁resignation
▁acquaintances
▁insignificant
TR
di
IER
UTH
bot
▁Ll
▁Ry
atha
know
quin
▁Lud
▁Opp
▁WAS
▁vot
▁wig
Three
urous
▁Dean
▁Iron
▁Isle
▁Lily
▁sped
abella
aunted
import
isbury
lavery
▁Janet
▁Syria
▁pines
▁secre
▁stain
▁trout
▁Burton
▁Julian
▁curved
▁factor
▁lesser
▁propag
▁scound
▁sleepy
▁superb
ennessee
▁Jehovah
▁Service
▁Station
▁bravery
▁deposit
▁drifted
▁joining
sequently
▁Caroline
▁Probably
▁adjacent
▁assuming
▁calamity
▁disappro
▁dragging
▁firmness
▁swelling
▁treasury
▁emergency
▁requiring
▁destroying
▁misfortunes
PL
Sm
ht
EAR
IEL
▁XL
assy
hart
roft
▁MON
▁Rub
▁Tam
▁aux
▁opt
...."
antes
ishly
pling
▁Mend
▁Pict
▁asyl
▁curt
▁epis
▁rabb
▁unin
Please
iences
▁Allah
▁Baker
▁cured
▁fewer
▁float
▁halls
▁iniqu
▁ivory
▁loses
▁palms
▁shots
ittered
▁analog
▁betrot
▁seamen
▁courses
▁editions
▁exposure
▁insulted
▁intimacy
▁orthodox
▁Represent
▁accidents
▁courteous
▁excepting
▁fortified
▁penetrate
▁definition
▁inevitably
▁vegetation
._"
Has
IDE
ORS
Sha
.--"
chet
▁Ott
▁Rey
essed
▁Aber
▁Ship
▁damn
▁ejac
▁hamm
▁peer
▁ripp
▁Basil
▁Rhine
▁Truth
▁Years
▁abide
▁costs
▁didst
▁slack
▁Valent
▁Warren
▁abomin
▁actors
▁compel
▁inquis
▁Gabriel
▁execute
▁maidens
▁zealous
▁confeder
▁counties
▁exertion
▁imported
▁strained
▁superflu
▁suspense
▁expedient
▁offspring
▁resembled
▁retreated
▁stillness
▁whatsoever
▁encouraging
bad
iol
▁Ak
!...
▁Eth
▁HEN
▁YOU
anges
▁Craw
▁Hort
▁Ivan
▁code
itched
street
▁Armen
▁Brook
▁Human
▁counc
▁fiend
▁gaily
▁ghast
▁goose
▁pagan
William
▁crowns
▁dragon
▁hunted
▁begging
▁conserv
▁motions
▁shocked
▁strings
▁trivial
▁obstacle
▁battalion
▁dwellings
▁seemingly
▁compromise
▁singularly
▁worshipped
▁pretensions
▁uncertainty
................
wy
Cor
IRST
onna
thly
yrus
▁Aud
▁Dog
▁Hop
▁lam
▁nic
imore
▁Mich
▁Peru
▁eyel
▁pett
▁upro
escend
icking
▁cable
▁disse
manship
▁Chapel
▁Sister
▁hermit
▁oxygen
▁raging
▁sentin
▁environ
▁forlorn
▁pleases
▁traders
▁Hastings
▁Mistress
▁delights
▁kneeling
▁lectures
▁paradise
▁soothing
▁tropical
▁Tennessee
▁correctly
▁approaches
▁detachment
▁alternative
▁neighboring
Br
IZ
sa
mel
pot
xts
▁Ve
umpt
arine
brown
▁hare
▁helm
▁intu
▁nuts
office
▁Arabs
▁torch
renched
▁Esther
▁Powers
▁Report
▁bigger
▁Creator
▁Vincent
▁consumm
▁elapsed
▁forbear
▁orderly
▁patches
▁banished
▁captains
▁detained
▁escaping
▁premises
▁spacious
▁furiously
▁complaints
▁conjecture
▁hereditary
▁destructive
▁sovereignty
▁transformed
=.
OB
dr
isa
opl
sac
thm
▁Da
INGS
alia
ophy
▁CAM
▁Jam
flies
ilion
▁Mild
▁lays
▁pend
▁scor
stones
▁Super
▁blunt
▁essay
istence
▁Cartha
▁Harvey
▁boughs
▁lumber
▁saloon
▁CHARLES
▁Empress
▁Further
▁Railway
▁Wallace
▁augment
▁charter
▁exasper
▁lacking
▁baptized
▁bursting
▁fugitive
▁luncheon
▁metaphys
▁stepping
▁Constance
▁entrusted
▁hostility
▁rejoicing
▁brightness
▁completion
▁historians
▁indulgence
▁Fortunately
▁accumulated
▁contemplated
▁conventional
▁representations
]'
ANK
lon
ppy
▁Op
Pray
▁liv
still
▁Ibid
▁Maud
▁Zeal
▁burg
▁lugg
▁mini
▁moor
▁whir
▁yoke
Though
kshire
▁Front
▁Seven
▁clubs
▁coals
▁coins
▁dusty
▁eclip
▁noisy
▁pyram
▁tires
▁vicar
▁votes
▁wiped
▁Nobody
▁darker
▁keenly
▁senate
▁strang
American
▁Chronic
▁defense
▁divorce
▁nursery
▁pirates
ictionary
▁concrete
▁ascending
▁attribute
▁criminals
▁personage
▁reinforce
▁disastrous
▁spectacles
▁agriculture
▁endeavouring
▁predecessors
PT
Up
ADY
Vol
oty
ORTH
cuse
mist
rait
alend
enton
grave
horse
▁Bene
▁Vice
▁YORK
▁afar
▁cogn
▁disl
▁foam
▁fuss
▁laun
▁mole
▁tool
▁tout
iating
▁Peggy
▁scour
▁sings
▁snuff
chamber
ilation
▁Morton
▁Origin
▁CAPITAL
▁ghastly
▁inspire
▁praying
▁brightly
▁practise
▁splendor
▁Europeans
▁fantastic
▁improbable
▁expenditure
▁industrious
▁inconvenience
cat
erk
ayne
lete
rift
udge
▁Bat
▁Dig
▁Tib
agram
black
ceded
eming
ollen
▁Disc
▁THOM
▁bald
▁heel
▁rods
▁Swift
▁disli
▁fores
▁lifet
ocrates
▁Consul
▁Joshua
▁buying
▁ghosts
▁undist
▁apology
▁butcher
▁favored
▁proving
▁valiant
▁adherent
▁explosion
▁impressive
▁miraculous
▁Legislature
▁desperately
▁transmitted
▁contemplation
UBL
llo
mad
▁Gi
▁xi
anus
issa
orms
▁Cob
▁Emb
▁Joy
▁Pic
▁Wes
▁pic
byter
groom
ights
rable
riber
▁Hold
▁brim
arches
pshire
▁barra
▁beams
▁cough
▁glare
▁overc
▁ranch
▁wrist
anthrop
pelling
uration
▁Leices
▁domain
▁fasten
▁shaped
▁tended
▁urging
▁Chaucer
▁Denmark
▁Fortune
▁annihil
▁crosses
▁elastic
▁inflamm
▁kissing
▁mineral
▁pasture
▁realise
▁tedious
▁guidance
▁majestic
▁resisted
▁retiring
▁settling
▁accepting
▁countless
▁depressed
▁supremacy
▁controlled
▁productive
▁Protestants
▁tranquillity
chi
jah
zza
athy
cock
dens
ilet
lace
lier
onde
▁Amy
▁Bor
▁Oak
▁Too
▁hob
▁luc
adays
atern
nings
overe
▁Dame
▁brew
▁hier
▁hush
▁ribs
▁forts
▁phase
▁squir
▁thigh
▁unbel
▁unfav
▁Donald
▁Sydney
▁interm
▁neatly
▁plunge
▁rascal
▁salute
▁sleeve
▁ticket
▁violet
▁Jesuits
▁doubled
▁exerted
▁infancy
▁resided
▁robbery
▁travels
▁vehicle
mediately
▁Beatrice
▁crystall
▁excluded
▁gleaming
▁lifetime
fortunately
▁intolerable
▁maintenance
▁accommodation
(_
cr
)--
Ger
aby
oma
var
▁dy
TERS
▁Bry
▁Ent
▁Vis
brows
enser
iller
regon
▁Educ
▁Emma
▁Gren
▁gasp
▁http
▁sage
▁stab
▁suck
abouts
asters
fields
idious
ousins
rament
▁Swiss
▁Treas
▁canon
▁hairs
▁sexes
▁Norway
▁ingred
▁telesc
▁Baptist
▁awfully
▁bridges
▁crooked
▁differs
▁imitate
▁lawyers
▁novelty
▁saluted
▁stature
▁threats
▁Division
▁vertical
▁assuredly
▁celestial
▁colonists
▁instincts
▁particles
▁references
▁housekeeper
▁maintaining
▁speculation
▁respectfully
▁companionship
▁communications
def
ifer
rice
uced
umsy
▁Mol
▁Sig
▁ape
▁aqu
iatic
vable
▁wink
bourne
ousing
▁Elect
▁Lieut
▁rates
▁scope
▁scout
▁swamp
▁usage
▁weeds
Captain
▁stress
▁chariot
▁ferment
▁worried
▁besieged
▁boarding
▁brighter
▁intently
▁opponent
▁reconcil
▁reverent
▁endurance
▁distressed
▁physicians
▁earnestness
▁embarrassed
▁demonstration
>.
HEN
aga
sim
RESS
apse
bows
eded
rium
roit
ruit
▁Arc
▁Hav
▁Seb
▁cob
▁rim
rance
▁Fern
▁Gate
▁Pray
iaeval
itives
▁Bened
▁XVIII
▁paras
rudence
▁Parker
▁famine
▁groves
▁hinted
▁hyster
▁labore
▁ravine
▁reared
▁sobbed
▁sturdy
▁unchan
▁Dickens
▁blunder
▁earthqu
▁enlarge
▁extinct
▁forcing
▁implied
▁replies
▁stealth
▁CONTENTS
▁Independ
▁advocate
▁champion
▁muscular
▁nobleman
▁persever
▁predomin
▁resource
▁shrugged
▁finishing
▁Republican
▁archbishop
▁disappoint
▁transaction
▁negotiations
cor
yss
Like
ibal
iffe
▁Gos
▁Leo
▁Sad
▁mig
angel
rella
▁Oper
▁bolt
▁fren
▁owes
▁rans
▁trot
▁Regin
▁bluff
▁hardy
▁insin
▁locom
▁shove
▁sweat
inished
▁Kansas
▁framed
▁overhe
▁trench
▁worlds
ologists
▁Blanche
▁Strange
▁Warwick
▁contend
▁discrim
▁growled
▁restaur
▁steward
▁daybreak
▁habitual
▁recourse
▁attentive
▁breathless
▁identified
▁plantation
▁governments
▁demonstrated
▁magnificence
APH
ISC
bli
gam
▁lb
atur
hate
regn
▁Bus
▁Ext
▁OLD
About
ateur
imity
▁Dead
▁Marj
▁PART
▁beck
▁toes
▁vass
▁vein
inders
▁Champ
▁peaks
▁scold
▁banker
▁clumsy
▁deceit
▁placid
▁rattle
▁rotten
▁unmist
▁urgent
▁values
iterated
▁mischie
▁handling
▁inasmuch
▁Salisbury
▁abolition
▁connexion
▁Australian
▁associates
▁condescend
▁repentance
▁enlightened
▁environment
▁theological
Te
Aug
ERY
ITE
ref
rys
urt
yng
life
mine
▁Gir
▁Lin
▁Ply
▁Ref
▁wan
ernal
onson
▁Cord
▁Crow
▁Farm
▁Into
▁MISS
▁axis
▁calf
▁loan
▁----,
▁Brist
▁Trade
▁hoofs
▁rains
ecticut
▁Living
▁Regent
▁clerks
▁expose
▁lastly
▁metall
▁resume
▁youths
▁Command
▁guineas
▁sepulch
▁tenants
▁trading
something
▁Anderson
▁impulses
▁invested
▁judicial
▁painters
▁screamed
▁tranquil
▁attacking
▁dispersed
▁disregard
▁indicates
▁overboard
▁monotonous
▁perceiving
▁restrained
▁vigorously
▁commonplace
▁continuance
▁displeasure
▁extinguished
▁revolutionary
Jan
aca
gun
lay
loo
oto
yet
▁Ut
itud
otic
▁Mes
▁eve
blood
count
those
utors
yards
▁Chin
▁Pick
▁fork
▁sham
▁vous
before
▁Coler
▁beads
▁heaps
▁parap
▁rolls
▁shawl
▁Leslie
▁Rupert
▁Walker
▁Watson
▁Yellow
▁consul
▁parcel
▁perils
▁smoked
▁spaces
atically
▁Harriet
▁blushed
▁chicken
▁robbers
▁encamped
▁incorpor
▁lighting
▁mournful
▁treating
▁foregoing
▁passenger
▁perplexed
▁shuddered
▁researches
▁retirement
▁terminated
▁departments
▁exceptional
▁perpendicular
hl
HES
ONE
ube
ATES
OUSE
anta
avan
iddy
ripp
uber
▁Hob
▁Lyd
▁tas
grims
raced
taire
▁Alps
▁acre
▁deme
▁rely
▁subt
verted
▁Jenny
▁abhor
▁hosts
▁postp
▁teasp
▁tough
▁Isabel
▁Ladies
▁attire
▁closet
▁dexter
▁richer
▁Florent
▁Prophet
▁handled
▁reminds
▁rescued
▁suicide
▁Prussian
▁applying
▁location
▁piercing
▁stubborn
▁quotation
▁Canterbury
▁accusation
▁respectful
▁thirteenth
▁transition
▁prosecution
▁treacherous
▁requirements
▁unexpectedly
AKE
Out
pur
girl
oots
thia
udic
▁Ice
▁Sau
▁gum
acked
etery
iless
ogues
▁Carr
▁bags
▁tank
▁unav
▁canst
▁motto
▁pearl
▁tries
igation
othered
▁Brazil
▁Follow
▁Holmes
▁Turner
▁bachel
▁courty
▁grapes
▁issues
▁monkey
▁obstru
▁strand
▁tasted
▁yearly
▁Theatre
▁cousins
▁refrain
▁research
▁simplest
▁temporal
▁Commander
▁Egyptians
▁construct
▁resulting
▁Cumberland
▁Manchester
▁legislature
▁contradiction
▁instinctively
AIL
Bar
Sax
West
atis
cely
erve
fact
inci
ista
open
orde
▁Mam
▁doe
▁imb
bourg
erved
iliar
shall
utary
▁COUN
▁LIFE
▁Plat
▁dome
▁mute
▁pots
▁worm
▁Fleet
▁blasp
▁gloss
▁lonel
elessly
▁Helena
▁Sicily
▁christ
▁Liberty
▁Stewart
▁acquies
▁shadowy
▁stained
▁Harrison
▁junction
▁kingdoms
▁messages
▁ridicule
▁survived
▁lingering
▁commissioners
Rep
OUND
iens
onte
▁Bav
▁Dud
▁Gaz
▁REV
▁Rio
▁toy
▁wuz
▁xii
adequ
union
unned
▁Nick
▁Said
▁Saul
▁bail
▁dart
▁mamm
▁nave
arians
valier
▁Belle
▁Dante
▁Essex
▁FIRST
▁Fifth
▁analy
▁grade
▁hangs
▁idiot
▁recur
covered
▁Strong
▁encamp
▁exempl
▁fixing
▁insane
▁nothin
▁Brigade
▁Norfolk
▁amazing
▁charmed
▁devised
▁Highland
▁expended
▁threaten
▁Worcester
▁amendment
▁defending
▁sympathies
▁humiliation
▁practicable
MY
wan
yll
▁Li
▁Od
amen
keep
▁Ban
▁Daw
▁Fen
asgow
oning
ulsed
▁Boys
▁Celt
▁Moon
▁Quix
▁anat
▁bisc
▁buzz
▁duel
▁lain
▁odor
▁slim
elcome
handed
▁Carly
▁Diana
▁Enter
▁dimly
▁frock
▁mason
▁recre
▁stren
▁topic
holders
▁Archie
▁Newton
▁Sidney
▁cavity
▁infall
▁marine
▁rabbit
▁edifice
▁elderly
▁enforce
▁needful
▁stating
quisition
▁Venetian
▁dazzling
▁despatch
▁dripping
▁eyebrows
▁opposing
▁pursuits
▁stumbled
▁carpenter
▁catalogue
▁municipal
▁plentiful
▁Buckingham
▁attentions
▁explaining
▁separately
▁supplement
▁transported
▁compensation
OUT
RED
apa
orf
vil
wig
wyn
Cont
Twas
days
shop
▁BAR
▁Kil
▁Anim
▁Dark
▁Sold
▁Visc
Before
antine
pieces
▁Artic
▁imply
▁infer
▁orche
▁satin
▁scrap
ictions
▁Calvin
▁deaths
▁feudal
▁grimly
▁senior
▁stragg
▁studio
▁Zealand
▁betwixt
▁crawled
▁heavier
▁perfume
▁secular
▁sobbing
▁unequal
▁unlucky
▁Treasury
▁ancients
▁channels
▁forgiven
▁merciful
▁ordained
▁shilling
▁sweetest
▁Everybody
▁fugitives
▁increases
▁solemnity
▁variation
▁administer
▁irritation
▁suggestive
▁wickedness
▁catastrophe
▁flourishing
BUR
ISE
tem
▁AG
Page
horn
mere
▁Cyn
▁VOL
▁cyn
ingle
▁Dora
▁Eust
▁fern
▁lull
▁soda
INGTON
▁EBook
▁Elsie
▁Inter
▁arrog
▁deity
▁mound
▁moust
▁tombs
▁unfit
ameless
▁Rogers
▁dances
▁decomp
▁eighth
▁jungle
▁knives
▁nicely
▁ranges
▁regain
▁rhythm
▁skirts
▁tempor
▁Century
▁implies
▁skilled
abilities
▁alarming
▁inventor
▁slipping
▁associate
▁equipment
▁paintings
▁Gloucester
▁flattering
▁sovereigns
▁advancement
▁embroidered
▁forgiveness
▁superficial
▁distinctions
▁correspondent
Its
ULL
ede
gal
ugs
yrs
▁EM
Wait
este
itiz
▁APP
▁Abs
▁Job
▁SCH
▁ech
▁som
▁wee
leigh
▁Back
▁Cave
▁Dale
▁Keep
▁Morm
▁Prom
▁anew
▁nail
▁plea
▁quer
▁util
ourers
seeing
twenty
▁Shaks
▁Until
▁effic
▁frail
▁immig
▁males
▁obliv
▁ounce
▁sands
▁tubes
▁Antiqu
▁Danish
▁Eugene
▁Transl
▁haunts
▁nostri
▁sinner
ometimes
stricken
▁Sherman
▁blossom
▁convuls
▁devices
▁inadequ
▁judging
▁legends
▁skipper
▁solicit
▁vinegar
▁District
▁Spaniard
▁benefits
▁cardinal
▁eminence
▁explains
▁insolent
▁hardships
▁integrity
▁projected
▁staggered
▁weariness
▁discontent
▁Connecticut
▁confinement
▁discovering
▁contributions
ANN
ICT
coal
dist
fted
prit
worn
▁Dum
▁Wis
Under
cibly
ettes
isans
round
uties
▁Brid
▁Hook
▁evap
▁sult
▁unob
powder
rossed
▁Class
▁Pompe
▁abdom
▁crude
▁flatt
▁maids
▁smoot
aternal
bearing
iferous
▁Engine
▁Modern
▁Series
▁blamed
▁gallop
▁ideals
▁pillar
▁reconc
▁script
▁waiter
▁Belgium
▁Burgund
▁Jacques
▁strokes
▁surpass
▁Apostles
▁currents
▁employer
▁fruitful
▁homeward
▁nowadays
▁occupies
▁weighing
▁aforesaid
▁conductor
▁cultivate
▁inscribed
▁mediaeval
▁occupying
▁sanctuary
▁statesmen
▁acceptable
▁expressive
▁politeness
▁recovering
▁simultaneously
TAIN
bish
▁Cel
▁END
▁Nep
▁soj
Since
heres
rians
ulity
▁Bald
▁Exam
▁Exec
▁Hend
▁Team
▁carn
▁nort
▁swam
▁yell
ayette
ceived
fellow
places
▁Falls
▁Flora
▁Miles
▁Sandy
▁argue
▁crush
▁goats
▁popul
▁shelf
▁villa
Besides
English
entious
▁Avenue
▁Behind
▁banner
▁mature
▁mystic
▁tissue
▁Windsor
▁antique
▁honored
▁insight
▁involve
▁languid
▁pretext
▁sternly
▁Consider
▁coolness
▁divinity
▁gambling
▁unmistak
▁Augustine
▁Coleridge
▁Leicester
▁courtyard
▁objective
▁traversed
▁Winchester
▁compressed
▁distracted
▁whispering
▁occupations
▁precautions
ANY
ETH
Int
OVE
Sch
avy
mie
▁Eu
▁Ff
▁SU
Alas
aten
blue
etic
oken
rial
swer
urbs
voir
▁Bot
▁Gun
▁arc
▁lee
▁pel
agged
since
▁Bret
▁Cock
▁Crus
▁Form
▁Kirk
▁Mans
▁Plut
▁rehe
arthen
pendix
▁Allan
▁Andre
▁apron
▁belly
▁glist
▁index
▁oaths
▁surpl
▁tutor
▁wires
atrical
▁Wright
▁gaiety
▁gilded
▁indist
▁kicked
▁shaded
▁speedy
▁dashing
▁digging
▁discord
▁glimmer
▁hopeful
▁inflict
▁tumbled
important
▁Flanders
▁Maryland
▁Randolph
▁anterior
▁assailed
▁drifting
▁membrane
▁unbroken
▁Gentlemen
▁addresses
▁flattered
▁freshness
▁intending
▁powerless
▁reduction
▁dismounted
▁Reformation
▁collections
▁intermediate
▁resurrection
▁disappearance
BR
Em
del
inf
▁ah
nals
vior
▁Bes
▁ILL
▁MAD
▁xxv
▁Cuba
▁Pret
▁evac
▁pard
▁rags
▁rhet
oosing
orters
rifice
▁Lance
▁shift
▁League
▁Reason
▁acquis
▁aggreg
▁grotes
▁hauled
▁recept
▁shrank
▁stocks
▁willow
▁bedside
▁classic
▁contriv
▁invaded
▁discreet
▁humorous
▁massacre
▁stricken
especially
▁Louisiana
▁injurious
▁luxurious
▁sorrowful
▁traveling
▁unsuccess
▁beneficial
▁bridegroom
▁confronted
▁hesitating
▁indication
▁refinement
▁conceptions
▁interpreter
▁recollections
INT
cun
dri
oga
olt
opy
owa
sur
tan
tus
yne
Love
Many
Than
USTR
icke
▁upl
ropri
women
▁Brus
▁clue
▁ding
▁lame
▁medi
▁moth
▁pars
▁Edgar
▁Moors
▁drill
▁dusky
▁helps
▁nests
▁stool
▁stray
lington
overing
whether
▁Things
▁Whilst
▁concur
▁drawer
▁proced
▁sewing
▁shabby
ernation
▁Cabinet
▁Hundred
▁kindled
▁praises
▁snapped
▁stables
▁twelfth
▁elegance
▁expelled
▁grandson
▁monarchy
▁outlines
▁provoked
▁regained
▁Gladstone
▁impartial
▁prevalent
▁alteration
▁personages
▁reflecting
▁Constantine
▁educational
▁unreasonable
ATT
IUS
OTH
atio
oise
walk
▁Hum
▁cot
▁pau
burst
dozen
enzie
▁forb
▁grud
▁odds
ENERAL
▁Laure
▁Mabel
▁Maine
▁bacon
▁drows
▁facil
▁fills
▁piles
▁plaus
▁stamm
▁vines
▁Bessie
▁Galile
▁commem
▁glided
▁robber
▁ruling
▁rushes
▁singer
▁Ancient
▁Edwards
▁Norwich
▁survive
▁embarked
▁feverish
▁luminous
▁mounting
▁reminisc
▁surfaces
▁treaties
▁unsatisf
interested
▁abilities
▁dominions
▁downwards
▁judgments
▁precision
▁signature
▁steadfast
▁desolation
▁implements
▁performing
▁retreating
▁volunteers
▁discouraged
▁anticipation
▁international
▁contemporaries
Rel
ods
ogg
Sure
lain
lymp
shad
▁Bul
▁Ecc
▁Lot
▁Pow
▁Sep
▁Top
▁lbs
▁mac
grate
ivals
▁Dion
▁Rain
▁Roll
▁affl
▁dove
▁oval
▁scal
▁verb
anting
ilence
▁Aaron
▁Often
▁curls
▁gains
▁gaunt
▁shrub
▁Clarke
▁Priest
▁camels
▁choked
▁detest
▁gifted
▁injure
▁outset
▁quarre
▁ridden
▁sorely
▁spears
▁strive
▁weekly
▁Already
▁dispose
▁pitiful
▁reddish
▁Plymouth
▁comforts
▁idleness
▁merchand
▁politely
▁spirited
▁uttering
▁comforted
▁executive
▁overthrow
▁commanders
▁definitely
▁Distributed
▁approbation
▁establishing
▁intelligible
▁characterized
▁—
MER
dem
lad
RIST
True
addy
aren
corn
ifix
llis
▁Ron
▁Run
▁ore
OTHER
adier
nance
orado
▁HIST
▁Noah
▁bamb
▁crow
urated
▁Claud
▁Table
▁bored
▁comic
▁ledge
▁Sylvia
▁coasts
▁errone
▁flavor
▁helmet
▁homely
▁joints
▁parade
▁shrink
ographer
▁aspects
▁baskets
▁boyhood
▁confine
▁defects
▁dynasty
▁flaming
▁longest
▁passive
▁plaster
▁sweetly
▁chivalry
▁illusion
▁pleading
▁abolished
▁disguised
▁disgusted
▁excursion
▁governess
▁programme
▁dreadfully
▁metropolis
▁thereafter
▁aristocracy
▁communities
▁hostilities
▁plantations
▁substituted
▁superfluous
▁comprehensive
emb
nic
rin
▁Gy
laid
many
nton
▁Gio
▁Sor
▁gem
▁peb
ITTLE
inued
itous
▁Chal
▁Poss
▁Rale
▁pork
▁slay
▁stip
▁tint
affold
escent
ortion
people
tofore
▁Adela
▁Drake
▁Found
▁embry
▁greed
▁grunt
▁lions
▁raven
▁weird
Another
iscopal
keeping
▁Beauty
▁Hester
▁Jessie
▁behave
▁heresy
▁impost
▁interl
▁rounds
▁starts
▁tailor
▁varies
▁Bristol
▁Quixote
▁conting
▁deprive
▁leaping
▁pistols
▁sleeves
▁tearing
▁wearied
▁behavior
▁covenant
▁forcibly
▁hardened
▁knocking
▁ladyship
▁memorial
▁spelling
▁velocity
▁adversary
▁composure
▁cordially
▁fisherman
▁stammered
▁transcend
▁Wordsworth
▁exhaustion
▁preserving
▁compliments
▁permanently
▁investigations
—“
AIR
ISM
OST
Res
_!"
bie
rab
▁ib
aird
aska
idan
▁Ide
▁Laf
▁Sed
▁asp
▁dod
atics
avian
elius
thood
▁akin
▁dock
Surely
criber
igneur
uddled
▁aggra
▁arsen
▁dynam
▁hints
▁rouse
▁steed
▁whims
Colonel
married
▁Summer
▁Vernon
▁clause
▁goodly
▁shares
▁Godfrey
▁Princes
▁cruelly
▁healing
▁routine
▁undergo
▁whipped
▁workman
▁projects
▁promoted
▁prompted
▁Yorkshire
▁arranging
▁considers
▁happening
▁premature
▁victories
▁violation
▁estimation
▁intimately
▁loneliness
▁periodical
▁successors
▁indignantly
▁manufactures
▁Notwithstanding
DUC
Men
hun
psy
anni
itis
robe
shed
stan
▁Dol
▁Len
▁Maj
▁wal
Henry
iancy
icers
ienne
inces
pound
▁CHAP
▁Cole
▁Mall
▁airs
▁snug
aceous
ifford
little
▁Humph
▁Large
▁Music
▁brist
▁camps
▁snowy
▁stops
▁wharf
▁Hector
▁Online
▁Oregon
▁Please
▁Virgil
▁admits
▁draper
▁drinks
▁elders
▁fabric
▁muscle
▁Webster
▁compens
▁compose
▁gleamed
▁impregn
▁microsc
▁natures
▁remnant
▁tablesp
▁thicket
stitution
▁Geoffrey
▁Persians
▁Theodore
▁Voltaire
▁coachman
▁dividing
▁tortured
▁Institute
▁extracted
▁fireplace
▁judicious
▁leisurely
▁practices
▁benevolent
▁fourteenth
▁localities
▁prodigious
▁expeditions
▁reconciliation
+,
EP
SH
Tw
OWN
uan
▁EL
▁Wm
▁mi
Exit
Long
arel
cony
▁Din
▁Hus
▁Lay
elope
hurst
iners
itual
▁Ches
▁Dire
▁Fall
▁Hood
▁Less
▁Line
▁aims
▁cask
▁matt
▁prol
▁rats
phabet
uating
▁Britt
▁Derby
▁Raven
▁Wells
▁necks
▁rainy
▁skirt
▁spurs
ilfully
parable
rations
▁Judith
▁Nathan
▁Sebast
▁barred
▁bowing
▁hailed
▁strode
▁veiled
▁Carlyle
▁Friends
▁arrives
▁beseech
▁censure
▁figured
▁luggage
▁preface
▁swollen
▁teaches
▁veteran
▁chaplain
▁colonial
▁crushing
▁Baltimore
▁Ministers
▁clearness
▁fishermen
▁liberties
▁similarly
▁thereupon
▁abundantly
▁diplomatic
▁insensible
▁perpetually
▁Proofreading
▁consternation
dp
BLE
ETT
Rev
imm
lot
▁NO
▁az
Comp
much
▁Ere
▁Mau
▁Por
▁Rud
▁Sue
▁sap
▁sly
▁web
Could
Trans
▁Bark
▁Conc
▁Diff
▁Mach
▁Song
▁beet
▁dame
▁hagg
George
enburg
▁HENRY
▁beans
▁chalk
▁ferry
▁indec
▁indol
▁lapse
▁lists
▁spray
▁verge
pending
ustible
▁Poland
▁echoes
▁grassy
▁lustre
▁packet
▁pedest
▁sights
▁symmet
assadors
▁Looking
▁briskly
▁notices
▁revival
▁secrecy
▁stuffed
▁Delaware
▁Isabella
▁Jonathan
▁cottages
▁differed
▁inviting
▁nostrils
▁Presbyter
▁eminently
▁expansion
▁undergone
▁charitable
▁churchyard
▁consulting
▁designated
▁Netherlands
▁engagements
▁selfishness
▁undisturbed
▁Commissioners
.*
AH
IO
▁]
ACT
Bel
Mer
awa
rus
ulc
▁“‘
ATER
alis
chin
hoen
roqu
unct
▁Bud
▁rap
▁rue
anity
aston
itter
umont
▁Body
▁Cold
▁WORK
▁XVII
▁anon
▁buoy
▁unce
alions
rolled
▁Lodge
▁Money
▁sizes
▁Houses
▁Number
▁abused
▁attach
▁blazed
▁damsel
▁pathos
▁relish
▁salmon
▁sexual
▁snakes
▁strait
▁strata
▁thrice
ensively
▁license
▁melting
▁squares
istration
mentioned
▁breeches
▁secondly
▁customers
▁grotesque
▁inquiring
▁obscurity
▁protector
▁thrilling
▁Philosophy
▁profoundly
▁constitutes
▁necessities
▁transactions
▁superintendent
AE
oz
uh
ANE
XXX
iph
mid
nzo
raw
▁Dy
atri
pgdp
scar
▁Hig
▁Jem
▁Lem
▁Tab
izard
overs
sburg
stant
▁Bess
▁Cant
▁LADY
▁begg
▁omin
▁pang
▁pite
▁rept
▁tuck
Madame
ingale
lihood
▁Eagle
▁JAMES
▁Olymp
▁beset
▁muddy
▁shady
▁slide
▁sting
▁Behold
▁Papers
▁Sophia
▁Wagner
▁ballad
▁cheers
▁curled
▁damned
▁deform
▁degrad
▁oblong
▁wooded
occupied
▁Against
▁Channel
▁testify
operation
▁Waterloo
▁captives
▁delivery
▁disputed
▁equipped
▁poisoned
▁quarrels
▁scaffold
▁conqueror
▁galleries
▁miniature
▁affliction
▁persistent
▁surmounted
▁deliverance
▁illuminated
▁expectations
▁inscriptions
▁insurrection
_[
HED
OLL
cry
nam
ucy
Supp
iram
lett
pose
wine
▁Gor
▁Rab
▁duc
▁hae
▁los
▁muc
agara
atres
ennis
▁Benn
▁Bird
▁Pain
▁aust
▁bast
▁deem
▁flor
▁lump
▁peak
▁Coast
▁Heart
▁Somer
▁etext
▁ninth
▁plung
▁suite
▁terra
alendar
ouching
tically
▁Covent
▁Fisher
▁Jeanne
▁Moscow
▁asylum
▁bricks
▁drives
▁graces
▁honors
▁strate
▁tunnel
▁yelled
▁Pauline
▁balcony
▁barrels
▁bathing
▁perched
▁relaxed
▁relinqu
▁rubbish
▁swelled
▁thereto
▁anchored
▁choosing
▁discours
▁disputes
▁enduring
▁formally
▁metallic
▁observes
▁sketches
▁Palestine
▁chieftain
▁factories
▁regulated
▁perplexity
▁prohibited
▁protecting
▁reasonably
▁refreshing
▁convictions
▁legislative
▁confidential
▁impossibility
▁classification
ENN
▁dé
comb
heum
mast
nigh
pere
phal
▁Ley
▁Rig
▁Syn
▁enf
▁icy
▁nom
erals
plate
ursed
▁Davy
▁Decl
▁Pall
▁airy
▁bere
▁boss
▁sine
▁tres
ailles
▁GREAT
▁Pract
▁Trust
▁delir
▁demol
▁knots
onshire
▁Julius
▁Nation
▁bathed
▁derive
▁digest
▁edited
▁morbid
▁shriek
▁shrubs
▁stored
▁subter
▁topics
▁wisest
▁Archive
▁Fathers
▁Kennedy
▁enraged
▁frantic
▁howling
▁replace
▁counsell
▁drooping
▁landlady
▁register
▁spinning
▁subsided
▁umbrella
rehensible
▁absurdity
▁additions
▁advisable
▁champagne
▁enclosure
▁hospitals
▁inference
▁peninsula
▁privately
▁procedure
▁sculpture
▁standards
▁waistcoat
▁gentleness
▁indicating
▁preventing
▁alternately
▁instinctive
▁mischievous
▁progressive
▁explanations
AVE
Hel
MON
eca
far
idy
ugh
▁Us
ERIC
Jack
abul
bott
shaw
▁Bun
▁Sey
▁Von
nesse
otive
venth
▁PUBL
▁inve
▁tire
mances
ogical
omical
ounces
▁Lloyd
▁claws
▁seals
▁stony
▁unint
ocolate
▁Jesuit
▁THOMAS
▁Thirty
▁appell
▁boiler
▁litter
▁oblige
▁outlaw
▁silken
▁Blessed
▁Knights
▁Mildred
▁merrily
▁statute
▁ungrate
▁Appendix
▁ancestor
▁grasping
▁overtake
▁suppress
▁engraving
▁wherefore
▁discomfort
▁efficiency
▁familiarity
▁manuscripts
▁peculiarity
▁philanthrop
▁photographs
▁transportation
OF
SP
AME
Les
oin
ulu
aths
beit
cled
conf
esch
inea
rish
went
▁Lyn
▁Use
▁alk
▁oct
▁sow
heads
heast
named
penny
think
uzzle
▁Cost
▁Fish
▁Magn
▁Pend
▁defy
▁epid
▁gait
▁null
▁stal
▁voll
joined
▁Tiber
▁caste
▁scrup
itching
▁Michel
▁matrim
▁nought
▁rector
▁theore
▁Glasgow
▁Shelley
▁confisc
▁cracked
▁ecstasy
▁planets
▁printer
requently
▁Brussels
▁Railroad
▁bachelor
▁cheering
▁confided
▁needless
▁organism
▁pamphlet
▁starving
▁trusting
▁colouring
▁fragrance
▁irritated
▁mechanism
▁poisonous
▁unlimited
▁heretofore
▁multitudes
▁theatrical
▁attractions
▁indications
▁interpreted
▁Introduction
▁combinations
▁compositions
▁condemnation
▁emphatically
▁individuality
Im
Ma
ERE
cio
jan
▁SW
Brit
camp
incl
mour
▁Gas
▁Meg
▁bin
▁jam
▁tho
Black
ancho
▁Arms
▁Beck
▁Pere
▁ausp
▁melt
▁pont
▁repr
orated
▁Fried
▁ether
▁mouse
▁stems
▁surve
▁woven
entieth
▁Jasper
▁LITTLE
▁Violet
▁demons
▁electr
▁geomet
▁layers
▁mantel
▁mining
▁odious
▁tenant
▁valour
entlemen
▁Gardens
▁boasted
▁denomin
▁excused
▁jumping
▁oftener
▁pettico
▁terrors
▁Hercules
▁blooming
▁coldness
▁creating
▁headlong
▁railways
▁commented
▁constable
▁patronage
▁submarine
▁yellowish
▁amusements
▁connecting
▁endeavored
▁enthusiast
▁situations
▁calculation
▁proprietors
▁disadvantage
▁gratification
▁affectionately
SC
ARK
Med
Tom
aan
fif
tha
ISON
ilde
iors
olia
ongh
otto
uled
urer
utus
▁Lev
▁Sit
▁bir
▁dub
▁gap
ATHER
iazza
idian
▁Alan
▁mell
▁unsc
ulture
▁Blood
▁Canal
▁Ellis
▁Words
▁arter
▁plump
▁Seeing
▁allude
▁idolat
▁tracts
▁Apostle
▁breasts
▁plateau
▁veranda
▁Whenever
▁affirmed
▁anecdote
▁erection
▁faltered
▁gladness
▁interrog
▁suffrage
▁syllable
▁despotism
▁promotion
▁scoundrel
▁accidental
▁messengers
▁reconciled
▁reproduced
▁systematic
▁tendencies
▁degradation
▁termination
▁confirmation
▁Unfortunately
▁advertisement
▁fortifications
Gen
adv
None
bach
igny
phin
pill
ptic
tics
umen
Bless
endom
iques
▁Gust
▁Pent
▁Shak
▁THAT
▁garb
▁pinn
▁slew
alties
escrib
kinson
ricate
uality
▁Cairo
▁DELTA
▁Deity
▁Plant
▁abyss
▁brink
▁corro
▁lever
▁manor
▁rhyme
▁smote
▁witty
▁Govern
▁circus
▁heaped
▁models
▁paddle
▁shroud
▁Hungary
▁amateur
▁cheered
▁clatter
▁emptied
▁hearers
▁lateral
▁maximum
▁prophes
▁radical
▁tension
▁watches
▁Browning
▁Socrates
▁apostles
▁charcoal
▁countess
▁gestures
▁involves
▁planting
▁withered
▁Education
▁Lancaster
▁offerings
▁spectator
▁whistling
▁authorized
▁brilliancy
▁instituted
▁persuasion
▁benevolence
▁investigate
▁mechanically
▁performances
▁propositions
=:
IRD
OTT
dog
erd
gre
yon
Arch
VENT
aple
ario
atra
inda
onso
osph
seau
▁DAY
▁Gay
▁SOU
▁Tol
▁dio
▁nim
James
enson
eston
oiled
opard
uckle
▁Eric
▁Hipp
▁Karl
▁Knox
▁News
▁Shan
▁blot
▁dose
▁fowl
▁gull
ocious
piring
unless
unting
▁Honor
▁jokes
▁mills
▁plank
▁repay
▁vanqu
▁Ernest
▁Prayer
▁capric
▁hotels
▁lacked
▁lashes
▁nobler
▁prints
▁rubber
▁sundry
▁traits
▁violin
▁Matilda
▁operate
▁tangled
▁theolog
▁chickens
▁gardener
▁surveyed
▁traveled
▁Hampshire
▁accession
▁brightest
▁limestone
▁materially
▁concealment
▁introducing
▁manufactured
▁acknowledgment
Hy
App
Che
Cle
Isn
cod
ika
▁Eg
▁Ez
▁NE
▁Wa
airy
anza
cier
hair
illo
imon
iper
nuts
oeuv
phic
ulum
▁Bac
▁Kar
▁idi
▁owl
Saxon
▁Pole
▁Stre
▁danc
▁knit
▁unit
▁vibr
▁vows
▁yarn
atters
celain
footed
▁Elder
▁Might
▁groom
▁smugg
▁tends
essions
pective
▁Custom
▁Rivers
▁elbows
▁exempt
▁neglig
▁stamps
ountable
▁castles
▁flashes
▁plucked
▁pyramid
▁shifted
▁utility
▁Johnston
▁Occasion
▁barracks
▁cemetery
▁desiring
▁hydrogen
▁magnetic
▁outbreak
▁powdered
▁sinister
▁strolled
▁supersed
▁swearing
▁directing
▁effectual
▁laborious
▁perchance
▁veritable
▁pilgrimage
▁ungrateful
▁territories
▁advantageous
▁successively
▁unsuccessful
Po
gom
mal
pat
too
uli
FORD
coll
educ
opes
resa
word
▁Arg
cling
ensis
▁Jord
▁Lock
▁data
Second
▁Antio
▁Hardy
▁Iroqu
▁Sound
▁Trist
▁bould
▁indig
▁moods
▁proff
▁rheum
▁stalk
▁steer
▁verte
▁weren
▁worms
fathers
▁Porter
▁Yankee
▁cigars
▁kettle
▁starve
▁analogy
▁applies
▁audible
▁baffled
▁citadel
▁combine
▁dungeon
▁enacted
▁naughty
▁nursing
▁partake
▁strains
struction
▁Italians
▁allotted
▁mentally
▁sounding
▁Armstrong
▁defenders
▁intercept
▁streaming
▁twinkling
▁dependence
▁facilities
▁habitation
▁moderation
▁professors
▁Christendom
▁certificate
▁determining
▁refreshment
▁sensibility
▁inconsistent
Lie
pox
IONS
Thom
clad
hawk
ombs
poor
▁Jar
gener
rency
▁Bast
▁Eden
▁Gert
▁PHIL
▁Phar
▁Rous
▁feat
▁gems
▁lets
▁span
ridges
riving
wright
▁Hilda
▁Hills
▁Maced
▁Trent
▁baked
▁ducks
▁inaug
▁satir
▁strat
▁Bertha
▁Evelyn
▁Polish
▁Stella
▁bamboo
▁scouts
▁solved
actorily
overeign
▁Puritan
▁Section
▁Univers
▁accents
▁bondage
▁brushed
▁burdens
▁fairies
▁grieved
▁mocking
▁sermons
▁whirled
▁holidays
▁infamous
▁pilgrims
▁deference
▁foreigner
▁insolence
▁labourers
▁libraries
▁occupants
▁signifies
▁activities
▁barbarians
▁fluttering
▁noticeable
▁persecuted
▁pertaining
▁regardless
▁regulation
▁structures
▁perceptible
▁questioning
▁voluntarily
OY
Ro
Acc
Cal
Mus
VII
Whe
▁GL
▁ba
agre
arum
cede
gian
uper
wife
▁Buc
▁Cod
▁Ely
▁IND
▁INT
▁Osw
▁SHE
▁dey
▁dye
Quite
bread
chell
plend
proof
ucker
▁Cand
▁Monk
▁Nine
▁Pete
▁Tree
▁ally
▁bien
▁ceas
▁psal
▁quod
▁sque
btless
vision
▁Birds
▁Cyrus
▁Steve
▁endow
▁fowls
▁pries
▁vouch
▁System
▁awaken
▁canals
▁cloudy
▁detain
▁glowed
▁relent
▁renown
▁satire
▁torped
▁Similar
▁denying
▁episode
▁fairest
▁martial
▁oblique
▁percept
▁Athenian
▁Iroquois
▁Lordship
▁boldness
▁clenched
▁delusion
▁flourish
▁frighten
▁implored
▁ordering
▁resorted
▁boundless
▁diligence
▁ferocious
▁indescrib
▁measuring
▁nightfall
▁precipice
▁profusion
▁reckoning
▁reconcile
▁surpassed
▁antagonist
▁boundaries
▁concession
▁contrasted
▁endeavours
▁gracefully
▁interfered
▁restricted
▁starvation
▁geographical
▁insufficient
▁justification
=--
Dec
iti
roe
▁Au
!"--
chae
chel
etty
ilib
▁DAS
▁DES
▁Eph
▁Ins
▁Kal
▁McG
▁RES
▁Viv
Queen
ogene
pents
▁Drum
▁Mull
▁cann
▁flex
▁hack
▁maps
▁stam
▁thar
azines
second
stream
thirds
▁Close
▁grape
▁repug
▁ruddy
▁sneer
▁stump
▁truce
▁twist
Journal
ethinks
ighting
onghold
▁Arabic
▁Butter
▁Duncan
▁Manila
▁Nearly
▁annals
▁boyish
▁busily
▁curves
▁linger
▁rudely
▁sickly
▁spoils
▁uproar
izations
perience
▁Mahomet
▁amounts
▁appeals
▁berries
▁biggest
▁grinned
▁pudding
▁regener
▁sunrise
▁symbols
▁trifles
▁Clarence
▁Province
▁aversion
▁chestnut
▁colleges
▁eleventh
▁facility
▁happiest
▁journals
▁outburst
▁populace
▁tiresome
▁trumpets
▁weakened
▁engineers
▁orchestra
▁posterior
▁temperate
▁ornamental
▁pretending
▁republican
▁stronghold
▁reluctantly
▁straightway
▁extravagance
▁comprehension
:_
YR
NER
aic
emp
RAPH
char
ione
occo
oras
ruce
suff
ucle
▁ANT
▁Abd
▁Aub
▁Exp
▁Fou
▁Kit
▁sod
▁vib
birds
▁Hume
▁Phoe
▁aper
▁babe
▁raft
▁soph
ectual
▁Along
▁Giles
▁Griff
▁Thank
▁exalt
▁hymns
▁speck
iquette
itorial
▁Dryden
▁Franco
▁Goethe
▁Revere
▁Signor
▁allows
▁ceases
▁devast
▁disord
▁drying
▁feller
▁giants
▁ranged
▁shines
▁swayed
romising
▁Account
▁Asiatic
▁Shepher
▁inmates
▁marquis
▁oysters
▁peering
▁silvery
▁wrecked
▁Thousand
▁director
▁implicit
▁sculptor
▁fountains
▁tolerable
▁Ambassador
▁applicable
▁colleagues
▁concluding
▁habitually
▁presumption
▁understands
--+
Rec
▁Va
▁ul
Keep
VIII
aisy
arck
cels
dles
llan
ocal
quit
▁Ost
▁Sib
▁WAL
▁ole
atine
▁Jenn
▁Mead
▁Sull
▁Went
▁amph
▁beak
▁glee
▁gnaw
▁poul
▁sled
▁whim
irling
ithmet
luence
▁burns
▁fract
▁hides
▁ludic
▁pinch
▁shuff
dressed
▁Claude
▁afresh
▁avowed
▁babies
▁counts
▁dramat
▁mutton
▁ordeal
▁peered
▁ponies
▁scores
▁Bedford
▁decrees
▁discred
▁excuses
▁fetched
▁issuing
▁quicker
▁shelves
▁suburbs
▁thirsty
stretched
▁avoiding
▁bearings
▁launched
▁miseries
▁penitent
▁presided
▁renowned
▁vitality
▁Territory
▁betrothed
▁demanding
▁enveloped
▁guarantee
▁malicious
▁muttering
▁reluctant
▁stretches
▁announcing
▁battalions
▁displeased
▁disturbing
▁fellowship
▁loveliness
▁priesthood
▁Immediately
▁discussions
▁achievements
▁deliberation
▁schoolmaster
▁satisfactorily
mi
._—
nay
alie
iard
itto
star
▁Kir
▁lid
▁sew
▁sob
aines
dress
knife
oyage
quire
▁Abbe
▁Angl
▁Beng
▁Kant
▁Mait
▁Moll
▁Nero
▁Play
▁Ring
▁atom
▁bake
▁limp
ellows
▁Cecil
▁Comte
▁Genoa
▁ammon
▁flint
▁glove
▁heirs
▁hound
▁rails
▁slate
▁spies
▁Austin
▁Celtic
▁Geneva
▁Prison
▁abound
▁adored
▁arched
▁domest
▁frivol
▁mascul
▁purest
▁rustic
▁sinful
▁trader
imentary
▁classed
▁matches
▁reconno
▁tossing
▁Colorado
▁adjusted
▁alphabet
▁capitals
▁corporal
▁degraded
▁explicit
▁grinding
▁holiness
▁supports
▁watchful
▁Gentleman
▁Thereupon
▁Valentine
▁adherents
▁analogous
▁convicted
▁deficient
▁deserving
▁elephants
▁incessant
▁musicians
▁overheard
▁hospitable
▁attentively
▁temporarily
▁consultation
▁involuntarily
SY
Sy
si
yt
ORM
Sat
Ste
Tra
VEN
▁LA
Hold
Once
aeus
city
ghan
gown
grow
guer
itie
pell
spir
vity
▁ART
▁Hab
▁Und
▁aye
▁joc
▁ken
▁kil
▁toe
▁yon
ouble
paper
▁Amen
▁Imag
▁Laun
▁Self
▁Snow
▁Teut
▁muse
▁slid
▁sown
Master
iguous
incing
unders
▁Evans
▁Haven
▁Lyons
▁Maxim
▁Paper
▁Teddy
▁aloof
▁bleak
▁camel
▁opium
▁seren
▁solve
▁taper
animity
letcher
ourably
▁CHRIST
▁Taking
▁Thence
▁arouse
▁avenge
▁explod
▁groans
▁ingrat
▁reigns
▁rivals
▁unrest
▁whisky
▁Indiana
▁Lorenzo
▁blinded
▁centres
▁earthen
▁hoisted
▁mortals
▁ominous
▁brooding
▁devoured
▁forwards
▁shifting
▁shivered
▁sterling
▁sticking
▁unlikely
▁celebrate
▁entreated
▁fortitude
▁governors
▁guardians
▁revolving
▁shivering
▁abominable
▁ejaculated
▁transgress
▁complaining
▁confidently
▁merchandise
▁underground
▁architectural
▁conscientious
▁disinterested
▁establishments
ILY
OOK
Oct
Sal
_.)
zig
▁IM
▁Ja
amon
elli
hope
imps
reci
ulph
▁Ful
▁Liv
▁MAC
▁Urs
▁XIX
areth
atism
blers
broke
ourer
ugged
▁AUTH
▁Ferr
▁Lost
▁Luck
▁Tony
▁boon
▁coil
▁gust
▁pins
▁tant
▁varn
Better
flower
ilated
▁Chero
▁atoms
▁cater
▁loath
▁sembl
▁sniff
▁solar
jection
▁Batter
▁Commer
▁chased
▁cometh
▁contra
▁lining
▁poorer
▁racing
▁shafts
▁unfair
▁warmed
▁withal
▁Cecilia
▁Evangel
▁applaud
▁beliefs
▁benches
▁dinners
▁forbade
▁formula
▁needles
▁posture
▁texture
▁exhibits
▁improper
▁injuries
▁lifeless
▁mastered
▁minority
▁thrilled
▁appalling
▁democracy
▁enlighten
▁evidences
▁malignant
▁railroads
▁telescope
▁Historical
▁democratic
▁indistinct
▁reluctance
▁contemplate
▁appropriated
▁congratulate
▁manifestation
▁mortification
▁accomplishment
Ric
cup
iat
sil
Conn
Port
agus
anes
beth
ogen
send
tops
▁Bri
▁CAL
▁Fol
▁SAL
▁Tac
▁Wid
▁mul
White
Young
anter
ciful
cutta
innat
world
▁Fear
▁Giov
▁Howe
▁Nest
▁avar
▁dess
▁nook
▁rall
▁scur
▁wage
▁xiii
▁zone
Heaven
idated
spread
veland
▁Abbot
▁Danes
▁Heath
▁abbey
▁aisle
▁chaff
▁cling
▁herbs
▁reeds
▁wrung
ections
▁AMERIC
▁Dudley
▁Treaty
▁bustle
▁congen
▁dipped
▁dotted
▁insert
▁launch
▁potato
▁sleeps
▁styled
▁chopped
▁eyelids
▁faction
▁ignored
▁nodding
▁raiment
▁spotted
▁blushing
▁depicted
▁disliked
▁enlisted
▁friction
▁infernal
▁inferred
▁presumed
▁remedies
▁revenues
▁theatres
▁embroider
▁immensely
▁marriages
▁moustache
▁notorious
▁occurring
▁purposely
▁tremulous
▁regularity
▁conjunction
▁aristocratic
▁tablespoonful
];
cu
ags
hap
REET
deck
helm
ndon
▁Cau
▁Dub
▁Equ
▁Gro
▁Non
▁yea
aract
gical
ocrat
▁Ange
▁Grad
▁Hann
▁Jama
▁Pant
▁Stee
▁Verm
▁core
▁enam
▁leng
▁tart
▁tips
▁unse
▁vnto
▁wipe
Really
amorph
atered
ezvous
perors
▁Capit
▁Edwin
▁Ports
▁Senor
▁irony
▁valet
Charles
brother
stained
urities
▁Gerard
▁bureau
▁ginger
▁humane
▁prizes
▁promen
▁strips
▁surviv
▁transc
▁wither
amations
▁Amongst
▁COMPANY
▁Hanover
▁Shortly
▁adverse
▁buttons
▁exclude
▁grammar
▁hateful
▁mercury
▁rapture
▁rehears
▁tickets
ropolitan
▁Marjorie
▁openings
▁redeemed
▁rustling
▁tumbling
▁whispers
▁Austrians
▁Executive
▁Frenchmen
▁Mackenzie
▁overtaken
▁religions
▁retaining
▁sentenced
▁courageous
▁developing
▁fulfilment
▁furnishing
▁hopelessly
▁inventions
▁multiplied
▁ordinarily
▁restaurant
▁constrained
▁contribution
▁recommendation
hey
isi
oit
oro
uil
wre
Four
OLOG
THER
Time
alus
ania
both
free
ivan
leaf
▁Hat
▁Rat
▁enm
▁gib
▁xiv
abond
actly
built
goons
iency
▁Clem
▁Desp
▁Dest
▁NOTE
▁Whar
▁XXXV
▁coax
▁dupl
▁leve
▁merr
▁nick
inates
itates
raltar
▁Cloud
▁Eliza
▁chaps
▁cords
▁encir
▁exter
▁polar
▁pools
▁risks
▁safer
▁sales
▁smith
▁tenor
▁traps
▁vocal
▁Antony
▁bearer
▁butler
▁coloss
▁confer
▁curses
▁extant
▁fondly
▁gotten
▁prerog
▁recomp
▁tapest
utations
▁Liberal
▁Lombard
▁Morning
▁Outside
▁Various
▁blended
▁cluster
▁factors
▁gateway
▁glaring
▁mastery
▁roasted
▁Irishman
▁exceeded
▁headache
▁incurred
▁musician
▁securely
▁triumphs
▁Chevalier
▁Josephine
▁authentic
▁butterfly
▁erroneous
▁impending
▁intuition
▁plausible
▁prophetic
▁seclusion
▁senseless
▁assemblage
▁exclaiming
▁wanderings
▁acquisition
▁extremities
▁imaginative
▁penetrating
▁susceptible
▁accidentally
▁cheerfulness
▁modification
▁perseverance
▁triumphantly
▁Representatives
]-
--“
Mac
OPE
UND
aka
fed
jar
mor
sin
▁ef
ITED
June
gall
leen
▁Aur
▁Box
▁Fat
▁Pin
▁Rot
▁XXI
▁riv
▁tam
▁typ
wheel
▁Bomb
▁Case
▁Sans
▁Side
▁Slow
▁Trib
▁Wald
▁cosm
▁snap
Listen
antime
awares
owness
umbent
▁Lydia
▁adore
▁baths
▁bully
▁draft
▁parch
▁Adrian
▁Buddha
▁Hunter
▁bowels
▁discon
▁envied
▁outfit
▁vanish
▁Buffalo
▁Niagara
▁Sundays
▁Towards
▁cleaned
▁equilib
▁fainted
▁gallows
▁masonry
▁outcome
▁portray
▁ribbons
▁sloping
▁tactics
▁tending
▁Military
▁Portland
▁diminish
▁noticing
▁shocking
▁sixpence
▁advocates
▁departing
▁furnishes
▁masculine
▁murderers
▁nervously
▁refreshed
▁teachings
▁delicately
▁gratifying
▁meditation
▁Inquisition
▁achievement
▁apprehended
▁ingredients
▁teaspoonful
▁circumference
Zo
”;
▁}
Min
cke
fal
ibi
▁GU
▁LI
▁LL
▁UP
IELD
July
emer
opin
rund
▁CAN
▁CHA
▁Got
▁Lan
▁Num
▁Pto
▁REC
▁TWO
▁Ves
▁mim
House
andin
indle
nders
oking
onsin
quite
▁Copy
▁Jess
▁PRES
▁chol
▁heal
lander
namely
turned
uction
▁Canon
▁Chand
▁DASIA
▁assid
▁caves
▁loung
▁rowed
▁Cooper
▁Foster
▁Huguen
▁Jerome
▁Juliet
▁Minnes
▁Miriam
▁barric
▁denial
▁essays
▁seaman
▁sentry
▁thorns
▁bayonet
▁despond
▁ethical
▁frigate
▁fullest
▁profuse
▁summary
▁Fletcher
▁Marshall
▁Michigan
▁congress
▁cowardly
▁extracts
▁luxuries
▁planning
▁tomorrow
▁volcanic
▁yearning
▁courtiers
▁cowardice
▁defensive
▁disclosed
▁enchanted
▁partition
▁automobile
▁candidates
▁elementary
▁inadequate
▁transverse
▁usefulness
▁handwriting
▁traditional
▁Consequently
▁speculations
▁contemptuously
MS
ea
HEB
obi
rov
uta
Mart
otus
thou
vels
▁Alg
▁EDW
▁Lim
▁Ran
▁STR
▁aur
▁rag
atile
▁Juda
▁Nora
▁Tour
▁bang
▁caus
▁figs
▁nous
▁reed
▁ruth
▁sobs
French
things
▁Opera
▁Phoen
▁china
▁incur
▁masts
▁sumpt
▁tails
▁unpro
▁valve
▁wield
century
feeling
▁Police
▁beaver
▁bolted
▁bucket
▁cement
▁consol
▁curate
▁dealer
▁improv
▁incarn
▁puzzle
▁shiver
▁warmer
achments
affected
incinnat
ribution
▁Cameron
▁Cavalry
▁ILLUSTR
▁apostle
▁asunder
▁baronet
▁bruised
▁complac
▁evinced
▁expired
▁folding
▁incline
▁magical
▁prisons
▁reveals
▁surplus
▁Phillips
▁fearless
▁frowning
▁imminent
▁impelled
▁inherent
▁lamented
▁resented
▁shameful
▁shrieked
▁vexation
▁allusions
▁ludicrous
▁mythology
▁observers
▁assistants
▁resolutely
▁solicitude
▁standpoint
▁suggesting
▁enterprises
▁fascination
▁speculative
▁enterprising
▁organisation
▁Northumberland
Ac
EX
_'
rh
KER
Put
iop
lag
opp
ucc
Coll
Most
asso
feld
izar
opha
oran
stit
stro
take
thol
▁Cox
▁Doc
▁GOD
▁Hod
▁Mot
▁Pep
▁Pun
▁dow
gated
izzie
monds
oline
urate
▁Carn
▁Dieu
▁Marl
▁Poll
▁Stru
▁chum
▁hues
▁mane
atible
ciless
erempt
▁Burns
▁Freed
▁HOUSE
▁Marsh
▁Pagan
▁SCENE
▁brake
▁carts
▁jelly
▁overp
▁paced
▁pregn
▁toils
▁vases
▁venom
control
▁Figure
▁Hubert
▁Jordan
▁Sancho
▁accuse
▁barber
▁caress
▁client
▁contag
▁devoid
▁doubly
▁frames
▁frenzy
▁museum
▁slices
▁suburb
▁toilet
ublished
▁Compare
▁Cynthia
▁HISTORY
▁availed
▁diagram
▁enables
▁farming
▁frowned
▁gratify
▁oneself
▁packing
▁pausing
▁pledged
▁rations
▁Brothers
▁Calcutta
▁Farewell
▁Frederic
▁cloister
▁iniquity
▁intrigue
▁inwardly
▁manifold
▁overcoat
▁radiance
▁slippers
▁whirling
cellaneous
▁awakening
▁chocolate
▁decisions
▁merriment
▁mortality
▁murmuring
▁prostrate
▁earthquake
▁harmonious
▁rendezvous
▁veneration
▁adventurers
▁ambassadors
▁consistency
▁distinctive
▁dissatisfied
▁manifestations
GR
LEC
lim
vii
▁Ka
ATED
NESS
acha
bank
erus
goes
icht
mort
seer
stre
than
zard
▁Alt
▁FRI
▁Gri
▁Hag
▁Nar
▁ave
acock
cloud
staff
whose
▁Diss
▁Hugo
▁Otto
▁carb
▁eyed
▁ford
▁hull
▁tray
athing
gomery
inting
riched
▁Chair
▁categ
▁chron
▁covet
▁dazed
▁idols
▁scare
▁unsus
▁vowed
itarian
itizens
venture
▁Curtis
▁Oswald
▁ROBERT
▁barley
▁dawned
▁deputy
▁galley
▁minded
▁outlet
▁pirate
▁ridges
▁streak
▁tested
▁Thought
▁drawers
▁haggard
▁mockery
▁perempt
▁plumage
▁repairs
▁rivalry
▁starved
ographers
▁Burgundy
▁Reginald
▁dialogue
▁diligent
▁pastoral
▁pictured
▁sanguine
▁stooping
▁tribunal
▁Chronicle
▁Katherine
▁contracts
▁denounced
▁magazines
▁merciless
▁obstinacy
▁apparition
▁conformity
▁graciously
▁industries
▁privileged
▁emancipation
▁outstretched
▁manufacturing
Fa
fr
Ann
Imp
Thy
osc
vat
▁ni
Sept
exam
pons
ruly
till
wear
▁COR
▁Kam
▁Moz
▁Raw
▁ace
▁aft
cause
elles
▁Chel
▁Cors
▁Deep
▁Hamm
▁Mong
▁Real
▁Sard
▁Sons
▁agin
▁clan
▁crus
▁inno
▁loop
▁mete
▁subj
▁beats
▁burgl
▁coral
▁drums
▁edict
▁enhan
▁fable
▁waver
However
▁Carter
▁Volume
▁altars
▁dogged
▁exhort
▁mingle
▁oracle
▁planks
▁transf
▁tyrann
▁vapour
Monsieur
daughter
iciously
isconsin
▁Jamaica
▁Private
▁Raleigh
▁choking
▁clearer
▁deserts
▁disobed
▁duchess
▁favours
▁glories
▁heroine
▁interse
▁manoeuv
▁marking
▁muskets
▁percent
▁rabbits
▁Sheridan
▁accorded
▁disciple
▁imitated
▁steamers
▁contended
▁frontiers
▁intrusted
▁porcelain
▁electrical
▁flourished
▁imperative
▁dissolution
▁immortality
▁instructive
▁conspirators
▁exaggeration
▁transformation
────────────────
Wal
lis
rob
sis
▁Kh
).--
IVER
Stop
Were
ldon
pipe
▁Air
▁Ced
▁Gam
▁Las
▁NAT
▁Wit
▁tan
Right
ophon
raine
unted
▁Amaz
▁Czar
▁Jour
▁Shir
▁ants
▁cres
▁dorm
▁epic
▁glob
▁hawk
▁twin
HEBREW
antile
holder
iances
▁Sioux
▁beque
▁handy
▁minst
▁mused
▁nucle
▁pecun
▁theft
ounting
riptive
western
▁Except
▁Hannah
▁Talbot
▁blacks
▁fertil
▁filthy
▁grieve
▁meagre
▁menace
▁metaph
▁ritual
▁tackle
▁winged
▁Andrews
▁apparel
▁forebod
▁kinsman
▁literal
▁martyrs
▁phantom
▁signify
▁watered
▁Meantime
▁Mexicans
▁alighted
▁charging
▁cushions
▁dealings
▁dictated
▁dominant
▁embodied
▁exploits
▁forsaken
▁lengthen
▁maternal
▁reversed
▁richness
▁sanctity
▁steering
▁trampled
▁variable
▁Francesco
▁Sovereign
▁admitting
▁affording
▁commended
▁hastening
▁unmarried
▁villagers
▁conversing
▁sweetheart
▁commodities
▁incessantly
▁intervening
▁recollected
▁unsatisfactory
OE
ao
zi
.)]
LET
OSS
ele
emn
etz
fol
▁ET
▁Ky
OUNG
Paul
colm
mare
oner
same
▁Bax
▁Tod
▁las
ierre
money
party
swick
▁Amid
▁Boul
▁Hear
▁adul
▁aest
▁pike
▁piqu
▁sate
▁vpon
Indian
having
loving
ocrats
rative
▁Barry
▁Marse
▁amiss
▁annum
▁chart
▁crawl
▁depot
▁intru
▁leapt
▁marsh
▁remot
▁trait
▁Lizzie
▁Magdal
▁Unless
▁fibres
▁fossil
▁inexpl
▁reside
▁verily
▁wreath
ableness
original
▁Addison
▁Certain
▁Gazette
▁Grecian
▁Suffolk
▁banners
▁expanse
▁fulness
▁humming
▁impract
▁muffled
▁parapet
▁pathway
▁rewards
▁sighing
incinnati
▁Benedict
▁Internet
▁Marriage
▁Scarcely
▁assemble
▁clasping
▁currency
▁laboured
▁rattling
▁shipping
▁uneasily
▁wrinkled
▁Admiralty
▁Gibraltar
▁inability
▁luxuriant
▁proposals
▁publisher
▁withstand
▁convincing
▁descendant
▁aspirations
▁predecessor
▁carelessness
▁intervention
Eh
Er
VE
IGN
OOL
]--
aya
cre
due
Chan
asts
ieux
iffs
urse
▁Byz
▁Cly
▁MOR
▁REL
▁hei
▁tut
RODUC
cence
ibald
ierra
istan
itime
sized
uster
▁Bent
▁Bush
▁Cale
▁Chem
▁Coff
▁Malt
▁Mike
▁Plan
▁Prim
▁Sent
▁Stri
▁bait
▁carp
▁lily
▁myri
▁omit
▁rack
▁raid
▁rand
▁sout
August
atious
▁Craig
▁Langu
▁Leigh
▁Phara
▁Poems
▁Vicar
▁blest
▁della
▁depra
▁encro
▁fling
▁salts
▁sinks
▁swarm
▁swine
ernacle
holding
mingham
▁Fergus
▁Mormon
▁abject
▁hedges
▁relied
▁yields
▁Eternal
▁asserts
▁incense
▁pioneer
▁showers
▁torches
▁wearily
▁wheeled
▁Officers
▁Reverend
▁embraces
▁engaging
▁grievous
▁heretics
▁lowering
▁overtook
▁reverend
▁taxation
▁Artillery
▁declining
▁disconcer
▁penalties
▁Montgomery
▁anticipate
▁committing
▁conducting
▁despairing
▁exultation
▁relatively
▁stimulated
▁adventurous
▁decorations
▁politicians
▁apprehensions
BE
PE
ALS
Ham
ILE
omo
yan
▁DO
▁eu
Hall
acit
anne
beck
meas
ymph
▁Saw
▁hym
▁oar
▁pav
."--"
March
Stand
Times
doing
holes
ignon
notes
▁Kill
▁Mand
▁View
▁dile
▁elim
▁feeb
▁glaz
▁nuns
▁sall
Thanks
Thomas
estead
▁Daisy
▁Jerem
▁Olive
▁Rocky
▁Wheel
▁areas
▁award
▁botan
▁repud
▁retro
▁stays
▁therm
ennyson
istical
selfish
▁Afghan
▁Edited
▁Princi
▁SECOND
▁adject
▁athlet
▁dissim
▁donkey
▁floods
▁robust
▁target
▁vastly
▁Emerson
▁Messiah
▁Nations
▁Reading
▁Swedish
▁daresay
▁royalty
▁sayings
▁timidly
▁Stafford
▁Treasure
▁councils
▁counsels
▁enriched
▁imparted
▁monotony
▁sentinel
▁statutes
▁woodland
▁Character
▁frankness
▁improving
▁practiced
▁preachers
▁procuring
▁sprinkled
▁unchanged
▁virtually
▁rebellious
▁corporation
▁nourishment
▁conversations
▁reinforcements
AZ
||
ENC
bee
owe
wny
▁xl
Mary
OUGH
circ
make
okes
rect
seud
werp
▁BET
▁Cou
▁Mul
▁Try
Think
eland
hesis
ouver
▁Barb
▁Coss
▁Cott
▁RICH
▁Read
▁Winn
▁XXIV
▁carc
▁fost
▁furs
▁garr
▁harb
▁mush
arrows
pering
verage
▁Dream
▁Guild
▁Sarac
▁caric
▁flann
▁incom
▁lease
▁nobly
▁odour
▁perch
▁sighs
▁tints
ortment
▁Better
▁Direct
▁ardour
▁enmity
▁feebly
▁floors
▁lilies
▁miners
▁mounds
▁muslin
▁phases
▁pierce
▁quotes
▁rained
▁recess
▁riders
▁submer
▁treats
▁triple
cessions
▁Raymond
▁abdomen
▁cheaper
▁eclipse
▁fanatic
▁ghostly
▁pigeons
▁refuses
▁throats
▁wasting
▁Philippe
▁Superior
▁bankrupt
▁calmness
▁colossal
▁crouched
▁crucifix
▁emphatic
▁expanded
▁knitting
▁loosened
▁missions
▁prevents
▁renounce
▁silenced
▁diversion
▁exclusion
▁informing
▁wholesale
▁Shakspeare
▁accessible
▁blacksmith
▁deficiency
▁entreaties
▁recreation
▁reproaches
▁Continental
▁spontaneous
▁subsistence
▁Commissioner
▁accumulation
▁distinguishing
▁unquestionably
"'
én
Ang
Est
LER
Lou
Mag
Ver
aco
nia
rub
alla
anas
aris
atig
ente
esus
gold
ixon
neys
prot
thor
uble
▁EAR
▁Pam
▁Pit
▁STE
▁alb
▁gel
▁pag
▁pla
▁wad
arius
igram
iston
merly
▁Geor
▁Hale
▁Late
▁Papa
▁axes
▁frig
▁untr
OGRAPH
gotten
impses
iolets
makers
unches
▁Banks
▁Bobby
▁Glory
▁Leave
▁Prest
▁abbot
▁bland
▁misty
▁slice
▁stall
▁unpre
▁vapor
uteness
▁Listen
▁Twelve
▁Willie
▁cruise
▁futile
▁onions
▁pigeon
▁snatch
▁undone
▁wedded
iversary
▁Arabian
▁Chateau
▁blasphe
▁broader
▁custody
▁fathoms
▁whiskey
▁Crawford
▁Shepherd
▁laborers
▁paternal
▁recesses
▁civilised
▁copyright
▁diplomacy
▁etiquette
▁excitedly
▁histories
▁Literature
▁discourage
▁excursions
▁glistening
▁corresponds
▁calculations
▁contemptuous
▁incorporated
▁accompaniment
▁communicating
▁indescribable
FR
XI
ALD
Aye
Sam
iro
mag
pef
~},
▁BU
▁KN
▁vn
acqu
emar
ikes
ipsy
step
unto
▁Ida
▁Lux
▁OFF
▁Pha
▁han
▁lag
▁paw
▁vom
creat
fford
ocket
▁Quin
▁Tale
▁Toby
▁drug
▁item
▁trop
almost
idency
▁Blair
▁Boers
▁cheat
▁daint
▁decks
▁mists
▁wills
onement
▁AUTHOR
▁Argent
▁Fuller
▁Jimmie
▁Poetry
▁define
▁emblem
▁girdle
▁healed
▁inexha
▁intens
▁latent
▁mortar
▁nurses
▁rooted
although
▁Conserv
▁Eustace
▁Persons
▁Walpole
▁affects
▁afflict
▁equator
▁evolved
▁heading
▁kicking
▁shipped
▁suffers
▁torpedo
cientific
▁Attorney
▁affinity
▁audacity
▁identify
▁monopoly
▁mustered
▁necklace
▁plunging
▁princely
▁pursuers
▁serpents
▁smoothly
▁Athenians
▁Cleveland
▁anonymous
▁appealing
▁commences
▁comparing
▁fearfully
▁geography
▁concealing
▁economical
▁forbidding
▁gratefully
▁alterations
▁equilibrium
▁mathematics
▁impracticable
▁independently
▁misunderstood
▁modifications
:"
sn
CON
Hal
ITS
LIN
pol
squ
uum
Cons
cart
eric
erie
itat
lius
rock
unce
urus
▁BUT
▁Coc
▁Dak
▁Lav
▁MAG
▁Tyr
▁Vas
▁bog
▁mah
▁ori
ASTER
adder
itans
utant
▁Abel
▁Mine
▁Name
▁Tory
▁Wife
▁arom
▁chis
▁exit
▁lieu
▁rung
▁skim
▁surn
▁undo
celled
cliffe
igated
▁Buddh
▁Hindu
▁Judah
▁Malay
▁Mercy
▁Siber
▁Speak
▁Titus
▁amply
▁crews
▁deals
▁dingy
▁folio
▁initi
▁loads
▁neutr
▁scoff
▁texts
▁twigs
▁unnot
bleness
ossible
▁Albany
▁Browne
▁Thanks
▁ensure
▁export
▁heaved
▁hemisp
▁hushed
▁impose
▁morsel
▁petals
▁phosph
▁superi
▁turret
▁Antwerp
▁Leaving
▁Pharaoh
▁barking
▁deities
▁grouped
▁implore
▁predict
▁queried
▁rainbow
▁revised
▁rigging
▁unspeak
▁wildest
▁Brittany
▁Normandy
▁Plutarch
▁Viscount
▁flattery
▁galloped
▁nameless
▁parishes
▁vagabond
▁whistled
▁Rochester
▁Sebastian
▁chemistry
▁commotion
▁martyrdom
▁shrinking
▁straining
▁strenuous
▁wherewith
▁womanhood
▁Birmingham
▁assailants
▁beginnings
▁correction
▁separating
▁unfinished
▁butterflies
▁connections
▁desperation
▁forefathers
▁involuntary
▁noiselessly
▁overflowing
▁preparatory
▁temptations
▁Occasionally
▁Presbyterian
▁psychological
Cy
Ph
_—
RET
Red
Six
ova
Make
URCH
abas
ardo
eese
igma
ipes
lyss
mart
mers
sign
tres
uffs
ugal
vill
whom
▁GER
▁Hoo
▁Isn
▁Kim
▁Lod
▁gin
▁ivy
Paris
annie
ommun
onius
rages
relig
▁PAGE
▁Piet
▁Pike
▁Sche
▁bids
▁clos
▁howl
▁rite
▁toys
assing
atting
rupted
yrinth
▁Gramm
▁Happy
▁Locke
▁Tibet
▁YOUNG
▁lowly
▁papal
▁punch
▁raged
arently
ashions
guerite
ispiece
▁Angelo
▁Editor
▁Honour
▁Isaiah
▁agrees
▁convex
▁dioces
▁diseng
▁genera
▁manure
▁noises
▁revers
▁timely
▁volley
▁worker
ickering
▁GENERAL
▁Passing
▁Slavery
▁Turning
▁assumes
▁blocked
▁cherish
▁foaming
▁glacier
▁hardest
▁heather
▁informs
▁marches
▁monkeys
▁pebbles
▁rattled
▁reputed
▁stunned
▁summits
▁thereon
▁volunte
▁wronged
▁admirers
▁dispatch
▁grinning
▁hillside
▁monastic
▁scruples
enaissance
▁Wisconsin
▁amounting
▁compounds
▁delegates
▁entangled
▁intrigues
▁journeyed
▁pecuniary
▁proximity
▁turbulent
▁uncovered
▁untouched
▁Versailles
▁conveyance
▁decorative
▁mentioning
▁politician
▁redemption
▁registered
▁vanquished
▁coincidence
▁revolutions
▁serviceable
▁dispositions
▁perspiration
▁inexhaustible
PR
['
eh
},
Eur
Mur
jou
sse
▁FE
airn
bout
cycl
pter
sman
▁Ath
▁Eva
▁dot
▁ell
▁hir
▁lui
▁orb
▁xvi
Count
UTION
chery
ickly
▁Gill
▁Hild
▁alms
▁bomb
▁ches
▁dice
▁hogs
▁pens
▁quel
▁trod
▁vase
inkles
legged
ranged
rudent
▁Cyril
▁baker
▁coars
▁fibre
▁heath
▁paral
▁rogue
▁tacit
Suppose
keepers
lderman
oughton
sighted
▁Assist
▁Commod
▁Durham
▁STREET
▁Seneca
▁bounty
▁epidem
▁fresco
▁hurric
▁laughs
▁nursed
▁styles
▁turkey
▁Beneath
▁Raphael
▁Seymour
▁caravan
▁flavour
▁profane
▁sinners
▁witches
perienced
▁Arkansas
▁Giovanni
▁Somerset
▁arithmet
▁chairman
▁chuckled
▁deepened
▁foretold
▁journeys
▁lovingly
▁magician
▁mingling
▁prevails
▁scrutiny
▁sufficed
▁tempting
▁caterpill
▁collision
▁defective
▁depending
▁employers
▁unanimous
▁unpopular
▁unselfish
▁Afterwards
▁Charleston
▁Cincinnati
▁delivering
▁dispatched
▁encampment
▁indirectly
▁laboratory
▁celebration
▁overlooking
-=
CC
[)
iu
War
adt
mil
mod
obl
Hush
IDGE
Must
arin
ilis
iums
izzy
pain
pear
tell
tles
▁GAM
▁Key
▁Mow
Royal
brand
emale
ichte
inges
marks
nolds
reast
vious
▁Cran
▁Kens
▁Merr
▁Peel
▁Wait
▁Wilf
▁bein
▁boom
▁gear
▁knob
▁lark
▁liar
▁lore
▁pawn
▁tipt
rences
seller
spoken
ulence
▁Bever
▁Dover
▁Judas
▁Pasha
▁armor
▁birch
▁cedar
▁crisp
▁rusty
▁slugg
▁spasm
▁waits
▁wines
country
▁Always
▁Either
▁Health
▁Hooker
▁abuses
▁caring
▁cherry
▁cylind
▁disfig
▁lavish
▁rebuke
▁repaid
▁soften
▁soothe
▁spines
▁taller
▁tumble
▁turtle
▁victor
▁Malcolm
▁Masters
▁Scandin
▁anteced
▁chateau
▁evangel
▁heiress
▁penance
▁swaying
▁visibly
▁Gertrude
▁accursed
▁adopting
▁aperture
▁cleaning
▁dissolve
▁fraction
▁greenish
▁invaders
▁offences
▁precinct
▁sparkled
▁squirrel
▁stalwart
▁watering
▁Henderson
▁champions
▁creditors
▁engrossed
▁forwarded
▁fruitless
▁hypocrisy
▁steamboat
▁adjustment
▁benefactor
▁calamities
▁conquering
▁conquerors
▁displaying
▁fascinated
▁statistics
▁subjection
▁Institution
▁originality
▁Independence
▁unmistakable
▁International
UP
fs
ICS
Ret
aro
ido
lia
▁Om
STON
adia
atta
edge
eros
high
inue
————
▁MER
▁ONE
▁Smy
▁TIM
▁nig
----'
IDENT
amour
andum
comer
geois
ickle
irons
isers
keley
shops
storm
umbed
▁Boer
▁Chip
▁Mons
▁canv
▁nets
▁pail
▁scre
▁sous
always
ontain
ourned
riment
▁Clerk
▁Force
▁Merry
▁Steam
▁Tales
▁annex
▁ardor
▁geese
▁hates
▁irrig
▁prest
England
meaning
working
▁Carlos
▁Colony
▁astray
▁cutter
▁grated
▁guinea
▁insure
▁paraly
▁quiver
▁random
▁repast
▁revive
▁shoots
▁wanton
probably
▁Granada
▁Hampton
▁Lambert
▁Madison
▁caprice
▁dissent
▁escapes
▁expects
▁ignomin
▁loosely
▁pottery
▁stifled
▁unclean
▁ushered
▁weaving
▁Agricult
▁Tennyson
▁balanced
▁composer
▁costumes
▁horseman
▁listener
▁omission
▁shutters
▁Following
▁deception
▁imperious
▁insulting
▁ordinance
▁similarity
▁excessively
▁professions
▁supervision
▁commonwealth
▁constituents
▁concentration
▁contemplating
▁substantially
================
Fr
Ho
Ber
Hon
fax
hai
▁Jr
bray
brid
dest
felt
hips
rius
▁POL
▁Tun
▁Ved
▁pul
Grand
asmus
eylon
fried
iline
ilted
rogen
sbury
▁Arts
▁Away
▁Finn
▁Flem
▁Hyde
▁Lect
▁Mare
▁anne
▁ardu
▁buds
▁fals
▁flax
▁haze
▁idly
▁mice
▁onto
▁woes
▁zinc
Having
ortune
▁Fritz
▁Keith
▁Marqu
▁Medic
▁PLATE
▁Ridge
▁Yours
▁alley
▁debau
▁filed
▁inact
▁items
▁staid
▁strew
▁undes
▁unequ
▁wells
amiliar
ipotent
repared
▁Dawson
▁EDWARD
▁Marcus
▁Ronald
▁devise
▁devour
▁fuller
▁garret
▁matron
▁pitied
▁plight
▁raises
▁sparks
▁wrists
restrial
▁Ambrose
▁Bertram
▁Bohemia
▁Gallery
▁Harvard
▁balloon
▁conical
▁console
▁decayed
▁editors
▁footman
▁gliding
▁helpful
▁impenet
▁rocking
▁shields
▁shipwre
▁sojourn
▁sparing
▁stripes
▁thicker
Christian
Gentlemen
▁Hannibal
▁cupboard
▁diffused
▁distract
▁felicity
▁granting
▁idolatry
▁stratage
▁towering
▁blackness
▁colleague
▁congenial
▁conquests
▁elections
▁galloping
▁plundered
▁possessor
▁stupidity
▁testified
established
▁commencing
▁extinction
▁leadership
▁overthrown
▁Marlborough
▁Renaissance
▁appellation
▁commandment
▁influential
▁inseparable
▁nationality
▁inexplicable
▁universities
▁parliamentary
Co
▁,
!'"
AMP
Nat
lli
Didn
asia
cers
hels
icon
isan
lies
oops
rays
▁Dau
▁Dod
▁Esc
▁Kan
▁Mey
▁Nik
▁SOC
▁cod
▁foc
▁sez
Leave
Water
aulay
ogged
▁Bism
▁MARY
▁Oliv
▁Room
▁bour
▁chir
▁deft
▁dors
▁keel
▁wail
ivated
▁Bolog
▁Hiram
▁STORY
▁comin
▁diary
▁paler
▁plots
▁ratio
▁rides
▁slipp
Richard
▁Barton
▁Bombay
▁Exeter
▁Lisbon
▁Surrey
▁climax
▁foster
▁hereby
▁muzzle
▁redeem
▁spider
▁spiral
▁stakes
▁Harding
▁Maxwell
▁Quarter
▁Sheriff
▁anarchy
▁boarded
▁defiant
▁grasses
▁handles
▁huddled
▁insists
▁knowest
▁morally
▁playful
▁sceptre
▁signals
▁sweeter
▁tyrants
establish
▁Jeremiah
▁Mitchell
▁Portrait
▁battered
▁crawling
▁fainting
▁fanciful
▁glimpses
▁patterns
▁regulate
▁rhetoric
▁wretches
▁Architect
▁Cornelius
▁Political
▁agreeably
▁animation
▁degrading
▁differing
▁miserably
▁patriarch
▁precedent
▁realities
▁reproduce
▁restoring
▁smothered
▁twentieth
▁unbounded
▁uniformly
▁Marguerite
▁Throughout
▁brightened
▁conclusive
▁counteract
▁disgraceful
▁impertinent
▁seriousness
▁applications
▁mathematical
,(
Cf
YM
).]
ADE
AUL
Ass
Die
Off
Pol
UCK
iri
▁DU
▁Ey
▁wy
?...
ador
arth
inor
otam
tail
ugar
▁Aby
▁Alc
▁Arn
▁Esp
▁Gon
▁Hog
▁MAY
▁Pey
▁Tot
▁abn
▁pew
▁sel
Maybe
cover
doors
enary
inker
onted
ormer
raint
repid
▁Bass
▁Deer
▁Hull
▁Loch
▁Toul
▁Vall
▁Zion
▁bass
▁bulw
▁impe
▁reap
▁wins
apolis
bulous
ustion
▁Crime
▁Ephes
▁Mills
▁Obser
▁Ptole
▁Salem
▁bened
▁feats
▁tasks
masters
sterdam
▁Arabia
▁Arctic
▁Bengal
▁Matter
▁barons
▁dwells
▁furrow
▁sleigh
▁stroll
▁stupef
▁verbal
artments
pedition
rupulous
▁Boswell
▁Epistle
▁auction
▁emerald
▁flutter
▁marshal
▁redress
▁voyages
President
▁Adelaide
▁Merchant
▁bordered
▁cataract
▁converts
▁diverted
▁exploded
▁horribly
▁joyfully
▁mouthful
▁reliable
▁secluded
▁shutting
▁Brunswick
▁Instantly
▁adoration
▁bloodshed
▁condensed
▁metamorph
▁prettiest
▁semblance
▁absorption
▁incomplete
▁splendidly
▁realization
▁discontented
▁presentation
Ob
PO
Hab
Hur
Pre
eta
eye
fri
gia
hom
lio
sky
vid
wit
▁SL
▁vs
arde
bris
done
enos
gues
omac
onto
orax
rity
uals
uben
▁Hey
▁Kid
▁Mig
▁Nos
▁Tus
▁Wer
▁dad
▁gut
▁rou
North
Uncle
ische
uvian
▁Bott
▁Bran
▁Cann
▁Diet
▁Elis
▁HOME
▁Hare
▁LAND
▁Perc
▁XXII
▁bicy
▁boar
▁disk
▁furt
▁lava
Prince
closed
indeed
teness
ulates
▁Diego
▁Fairy
▁Mathe
▁Sophy
▁ankle
▁brack
▁chagr
▁immov
▁peach
▁prone
▁snows
▁tense
▁vehem
asingly
ittance
through
▁Baxter
▁Coming
▁Cotton
▁Courts
▁Farmer
▁Grande
▁Hamlet
▁Harper
▁Lowell
▁Newman
▁Saxons
▁camped
▁flanks
▁fringe
▁gentry
▁malady
▁routes
▁visage
building
▁Affairs
▁Hebrews
▁Meeting
▁Preston
▁Printed
▁Simpson
▁abreast
▁arduous
▁cabbage
▁chained
▁heating
▁heaving
▁inhuman
▁lurking
▁pitcher
▁segment
▁violets
▁Gentiles
▁Macaulay
▁Mortimer
▁Reynolds
▁crystals
▁descends
▁foreseen
▁managing
▁oblivion
▁repulsed
▁residing
▁traitors
▁whiskers
▁Doubtless
▁counterfe
▁distorted
▁governing
▁inspector
▁Devonshire
▁Florentine
▁Portsmouth
▁contention
▁exhibiting
▁frequented
▁mercantile
▁unintellig
▁adversaries
▁anniversary
▁demonstrate
▁negotiation
▁overpowered
▁reformation
▁unimportant
▁volunteered
▁workmanship
▁experimental
GER
Reg
aba
afe
aye
emy
gne
uld
IOUS
LISH
URES
care
clay
eria
haus
home
idal
ifax
lyph
neum
oole
oyne
play
▁Dru
▁Ker
▁McK
▁Naz
▁Ruf
▁Tir
▁tet
cases
echan
itage
▁Disp
▁Frau
▁LOVE
▁Math
▁Sire
▁Vols
▁avec
▁cess
▁claw
▁cork
▁fawn
▁garn
▁hens
▁isle
▁pern
▁spun
Behold
icates
uctive
▁BOOKS
▁Bates
▁Glass
▁Innoc
▁Norwe
▁Prime
▁cocoa
▁germs
▁imped
▁knave
▁nasty
▁numer
▁paved
▁pores
▁resid
▁tuber
incible
▁Brutus
▁Bulgar
▁Dionys
▁Irving
▁Market
▁Wonder
▁aggrav
▁deprec
▁enrich
▁grades
▁grudge
▁indict
▁progen
▁ransom
▁shirts
▁Mercury
▁admirer
▁arrayed
▁fervent
▁girlish
▁markets
▁monopol
▁nominal
▁poultry
▁scruple
▁vividly
▁Armenian
▁Humphrey
▁claiming
▁comments
▁consolid
▁incompar
▁obliging
▁operated
▁reducing
▁sometime
▁succeeds
▁Methodist
▁Minnesota
▁acquiring
▁aggregate
▁asserting
▁blindness
▁diversity
▁fertility
▁gunpowder
▁inexpress
▁quickened
▁recalling
▁stumbling
▁superiors
▁vehemence
▁whiteness
▁Israelites
▁geological
▁grievances
▁invaluable
▁brotherhood
▁commissions
▁drunkenness
▁extensively
▁continuously
▁disappearing
▁Protestantism
▁manufacturers
Bi
'."
Bra
IET
NEY
Spe
pit
uda
voy
▁Ki
ILLE
ROSS
cote
enic
irms
kees
▁Esk
▁Hes
▁Los
▁PAT
▁Vel
▁WOM
▁bye
▁hee
▁wer
▁wot
Among
April
Hello
Major
ascal
champ
eterm
▁Athe
▁Falk
▁Hero
▁Iowa
▁Lear
▁Left
▁List
▁Sara
▁Ther
▁Wars
▁Wash
▁Zeus
▁apex
▁bung
▁laud
▁sane
▁scow
▁spit
▁unal
agogue
▁INTER
▁Pliny
▁Quint
▁effig
▁exhil
▁flown
▁grizz
▁lasts
▁parad
aterial
▁Bailey
▁Barnes
▁Louisa
▁Mozart
▁Munich
▁Observ
▁blades
▁dispar
▁equals
▁grocer
▁ignore
▁infamy
▁rustle
▁shewed
▁shrunk
▁sunken
▁Princip
▁abstain
▁beggars
▁cricket
▁decreed
▁fitness
▁foreman
▁fringed
▁glitter
▁initial
▁retains
▁spreads
Something
▁Berkeley
▁INTRODUC
▁assassin
▁bewilder
▁clutched
▁fatigued
▁juncture
▁maritime
▁minutely
▁modestly
▁multiply
▁sagacity
▁stimulus
▁thronged
▁township
▁violated
▁Wherefore
▁alternate
▁embracing
▁emotional
▁gallantry
▁intimated
▁labyrinth
▁lightness
▁medicines
▁screaming
▁shepherds
▁specified
▁successes
▁supplying
▁unwelcome
▁diligently
▁impassable
▁liberality
▁pernicious
▁vehemently
▁conceivable
▁cylindrical
▁ingratitude
▁precipitate
▁contemptible
▁conveniently
▁accomplishments
Es
ré
nds
opa
ski
...|
aser
auld
eunt
idae
itur
once
onis
tera
thro
uren
▁ARE
▁Cer
▁FRE
▁MIN
▁gor
▁jub
▁jug
Bring
anies
ongru
swain
▁Camb
▁Lent
▁Mell
▁Need
▁Pars
▁Shah
▁Shaw
▁Swan
▁Thur
▁Vera
▁Vine
▁Wing
▁cone
▁gaol
▁hove
▁leur
olphin
remont
solete
stable
──────
▁Cause
▁Chris
▁Vicer
▁bathe
▁hooks
▁kneel
▁noses
▁tides
▁utens
▁wares
hanging
iceless
▁Canaan
▁Fellow
▁Hither
▁Parson
▁Wesley
▁biting
▁closes
▁cooper
▁crumbs
▁fading
▁madman
▁midday
▁patrol
▁peeped
▁rapids
▁repute
▁sample
▁switch
▁Augusta
▁Bourbon
▁Medical
▁Stevens
▁attired
▁ballads
▁biscuit
▁cholera
▁epistle
▁heretic
▁immoral
▁repress
▁scented
▁sensual
▁steered
▁weighty
▁Ministry
▁Progress
▁Rousseau
▁faintest
▁farthest
▁fondness
▁forenoon
▁novelist
▁overcame
▁replying
▁telegrap
▁uplifted
▁Hungarian
▁Provinces
▁Sacrament
▁campaigns
▁composing
▁constancy
▁corrupted
▁dishonest
▁insurance
▁labouring
▁ponderous
▁revealing
▁scrambled
▁therewith
▁thrusting
▁Collection
▁Democratic
▁Kensington
▁Translated
▁investment
▁limitation
▁manifestly
▁publishers
▁Transcriber
▁convulsions
▁monasteries
▁perspective
▁punishments
▁Commonwealth
▁inflammation
’,
Cat
Dan
Feb
IGH
Sim
Sur
Wor
nin
rip
vor
WELL
cern
enza
erva
iman
kens
mach
worm
▁DAV
▁TRI
▁Xen
▁noo
Again
erick
hound
ipzig
posts
quiet
stick
▁Bram
▁Furn
▁Hark
▁Laur
▁Mant
▁Phot
▁Wool
▁asce
▁atro
▁chop
▁jars
▁oats
▁owns
blical
enesis
helieu
istles
ooting
served
▁BLACK
▁Berry
▁Carey
▁Mamma
▁Party
▁XXIII
▁amber
▁dilap
▁envoy
▁flask
▁fluct
▁grind
▁guild
▁notor
▁oxide
▁selfe
▁shoem
▁strap
ontaine
▁Ceylon
▁Herald
▁Phoebe
▁accost
▁astrol
▁chaste
▁divert
▁frustr
▁lashed
▁scrape
▁watery
Remember
aternity
▁Finding
▁Moorish
▁coaches
▁conceit
▁cooling
▁drained
▁epitaph
▁flannel
▁handing
▁heroism
▁reverie
▁senator
▁stupend
▁submiss
▁unheard
▁vindict
▁Beaumont
▁Clifford
▁Standing
▁actively
▁bayonets
▁conceded
▁doubting
▁pastures
▁pitiless
▁rotation
▁traverse
▁Copyright
▁Lafayette
▁digestion
▁employing
▁fashioned
▁festivals
▁involving
▁parchment
▁remembers
▁unnoticed
interesting
▁adaptation
▁exercising
▁invincible
▁percentage
▁stationary
▁superseded
▁temperance
---+--------
▁commissioned
▁indefinitely
▁publications
▁wretchedness
________________
Il
MAR
UNT
agg
pus
uet
urm
zac
▁GO
▁Ig
Much
ROWN
gger
nard
ogne
pret
uner
viii
▁CAT
▁Cav
▁FAM
▁Hot
▁LXX
▁MEM
▁MUS
▁Sta
▁fry
abama
arity
herry
shell
sided
▁Pomp
▁Ster
▁fade
▁gymn
▁herb
▁lard
Should
asures
ctrine
erting
horses
skirts
▁Brent
▁COUNT
▁Lakes
▁Madge
▁Navar
▁OTHER
▁Prisc
▁Singh
▁Total
▁antip
▁chaos
▁chess
▁clump
▁elong
▁madly
▁moons
▁olden
▁pangs
▁syrup
▁unres
abulary
avering
ountain
▁Around
▁Breton
▁Forbes
▁aching
▁cheery
▁comply
▁embryo
▁fiddle
▁picnic
▁sequel
▁sledge
▁strewn
▁toiled
▁Flowers
▁Hopkins
▁Newport
▁darkest
▁dispers
▁grazing
▁guiding
▁prowess
▁renewal
▁scrutin
▁sighted
▁slaught
▁soothed
▁tissues
▁trimmed
▁vassals
▁wailing
represent
▁Carthage
▁Exchange
▁Francisc
▁Monmouth
▁besought
▁blockade
▁builders
▁contrive
▁fashions
▁ferocity
▁pioneers
▁ramparts
▁roadside
▁scornful
▁softness
▁steaming
▁torments
▁Katharine
▁assisting
▁bordering
▁homestead
▁northwest
▁scratched
▁uppermost
▁vigilance
▁wistfully
▁Conference
▁compliance
▁exposition
▁oppressive
▁speechless
▁Declaration
▁compartment
▁limitations
▁necessaries
▁recognizing
▁inconvenient
▁straightened
▁transmission
▁straightforward
"?
][
ji
ju
ASH
ELS
ETS
Ess
Law
Ser
Syn
eno
qua
xes
▁Ib
▁oo
▁wo
Both
Note
alog
dust
ivou
ride
sent
▁Dow
▁Tig
▁hog
▁mum
▁vie
croft
hanan
roads
▁Days
▁Diam
▁Face
▁Garr
▁Gros
▁Jake
▁Jude
▁Lyon
▁Muse
▁Rabb
▁Raff
▁Slav
▁Soci
▁Text
▁Whig
▁Whom
▁exig
▁fiss
▁gout
▁inco
▁peev
▁slab
igible
osures
▁Admin
▁Apple
▁Bread
▁Chald
▁Colin
▁Hetty
▁Quite
▁broom
▁comed
▁dogma
▁twins
▁unman
▁valid
▁weave
Through
ethoven
isement
▁CHURCH
▁Conway
▁Tartar
▁alight
▁dreamy
▁embell
▁glossy
▁grants
▁leaden
▁plural
▁solace
▁starch
▁stitch
▁unwise
▁Cornish
▁Inspect
▁Madonna
▁Memoirs
▁Osborne
▁Potomac
▁Thacker
▁Timothy
▁adhered
▁angular
▁borough
▁carving
▁diction
▁divides
▁forsake
▁hissing
▁intrins
▁legions
▁package
▁reforms
▁severed
▁steeple
▁Churches
▁Coventry
▁Literary
▁Lorraine
▁deputies
▁eventful
▁hoarsely
▁hovering
▁incongru
▁insanity
▁quivered
▁shortest
▁slippery
▁sufferer
▁wardrobe
▁Greenland
▁Newcastle
▁Stevenson
▁blackened
▁disgraced
▁mechanics
▁partisans
▁reassured
▁servitude
▁sleepless
▁unhappily
▁Palmerston
▁contending
▁locomotive
▁nomination
▁numberless
▁protracted
▁scornfully
▁supporters
▁witchcraft
▁invitations
▁suppression
▁terrestrial
▁Parliamentary
WN
_-
COM
XII
coe
loc
saf
Comm
call
dead
deen
esta
fton
last
oquy
role
▁Dro
▁HOL
▁Hom
▁Lau
▁Mog
▁REM
▁Tan
▁Thr
▁Ton
▁eul
▁tig
▁unh
Peter
arthy
brook
cross
hagen
rague
ruded
uture
woods
▁Dart
▁Myst
▁Nash
▁Tusc
▁Writ
▁alac
▁bays
▁golf
▁larv
▁mold
▁nuis
▁oaks
▁pupp
▁trud
▁weed
ashire
finger
ittees
lysses
market
resden
ribing
thorne
▁Begin
▁Irene
▁Walla
▁Woods
▁cubic
▁dough
▁dryly
▁hairy
▁hatch
▁hazel
▁infin
▁orbit
minated
tholome
▁Barker
▁Benson
▁Cowper
▁FRIEND
▁Greene
▁Medici
▁Saturn
▁Wisdom
▁ambush
▁beware
▁cabins
▁demean
▁fences
▁jerked
▁lookin
▁plumes
▁sinned
▁soaked
▁stalks
▁stalls
▁stolid
▁tennis
▁verand
iliating
ographic
tempered
unctions
▁Britann
▁Clinton
▁Halifax
▁Springs
▁beaming
▁bombard
▁clouded
▁confide
▁damaged
▁damages
▁epithet
▁outlook
▁permits
▁suspend
▁unmoved
▁winters
▁Assyrian
▁Colonial
▁Parisian
▁Wherever
▁assuring
▁befallen
▁corrobor
▁displays
▁escorted
▁forcible
▁labourer
▁longitud
▁obscured
▁particle
▁squeezed
▁transact
▁truthful
▁Otherwise
▁Richelieu
▁ceaseless
▁directors
▁frivolous
▁indefatig
▁intricate
▁murderous
▁postponed
▁proffered
▁signified
▁starboard
▁syllables
▁whirlwind
▁Richardson
▁adventurer
▁beneficent
▁ceremonial
▁chattering
▁circulated
▁inconsider
▁injunction
▁intimation
▁preferable
▁providence
▁scandalous
▁scrupulous
▁straggling
-----+-----+
▁imperfectly
▁millionaire
▁philosophic
▁comprehended
▁reproduction
▁restrictions
▁subterranean
▁congratulated
Et
ét
DAY
INA
OPH
aea
lat
mud
zel
▁Mi
▁Ts
▁mm
OWER
best
oble
oths
oule
sick
▁JUL
▁Lep
▁MED
▁OUR
▁Wyn
▁lil
Chief
ESTER
Other
habit
ocene
ogany
onent
quets
stown
▁Buon
▁Cora
▁Euph
▁Grim
▁Rust
▁Scip
▁anom
▁dyed
▁lens
▁quam
dening
olical
olving
struck
uption
▁Alleg
▁Below
▁Feder
▁GAMMA
▁Plain
▁Sixth
▁Strat
▁bower
▁filth
▁forks
▁kills
▁lanes
▁onion
▁scrib
cerning
▁Bureau
▁Gustav
▁Macdon
▁Monroe
▁Sussex
▁Thebes
▁Walton
▁baking
▁cheque
▁confid
▁convoy
▁emerge
▁forged
▁intest
▁mildly
▁mixing
▁scraps
▁strung
▁subdiv
Nonsense
ogeneous
▁Bishops
▁Collins
▁Speaker
▁Viceroy
▁ensuing
▁fetters
▁follies
▁sliding
▁succour
▁unarmed
▁Chambers
▁Daughter
▁delirium
▁excepted
▁explored
▁fireside
▁infected
▁mainland
▁precepts
▁sequence
▁Battalion
▁Churchill
▁Whereupon
▁disasters
▁fastening
▁initiated
▁outskirts
▁quartered
▁realizing
▁selecting
▁Correspond
▁combatants
▁handsomely
▁inhabitant
▁moderately
▁thundering
▁Highlanders
▁apprentices
▁bewildering
▁brilliantly
▁contentment
▁diminishing
▁impenetrable
▁unscrupulous
▁demonstrations
NA
Cam
IRL
Jul
Mat
OUG
_?"
ahs
cab
dec
mis
orr
▁Eh
▁Gw
▁sq
▁||
eroy
feet
gled
gons
oine
rics
▁Ask
▁BRO
▁Eld
▁Hem
▁PAL
▁Pag
▁Scy
▁ami
▁nos
agles
angle
avers
dling
ophil
riggs
shore
▁Anat
▁Anti
▁Duck
▁Fund
▁Pill
▁Rush
▁Sonn
▁Sure
▁Syra
▁Vane
▁Wise
▁YEAR
▁avow
▁dent
▁dole
▁fees
▁frag
▁lang
▁loom
▁owne
amount
assium
ateral
ective
fourth
opotam
thirty
▁Chase
▁Clair
▁Isles
▁Kelly
▁Maybe
▁Rosam
▁SMITH
▁Slave
▁azure
▁berth
▁bolts
▁clown
▁gowns
▁lambs
▁leafy
▁links
▁maxim
▁myths
clothes
nington
▁Chopin
▁Franks
▁Norton
▁Slowly
▁Sparta
▁breeds
▁busied
▁canopy
▁crocod
▁drowsy
▁fights
▁massac
▁noting
▁ostent
▁polish
▁spoilt
▁suffoc
▁versed
▁waggon
▁Belgian
▁Freedom
▁Philist
▁RICHARD
▁bushels
▁clapped
▁dessert
▁drapery
▁drivers
▁envious
▁gripped
▁inconce
▁labored
▁peopled
▁presses
▁promont
▁whereon
▁Bohemian
▁Johannes
▁Tristram
▁agencies
▁convicts
▁defences
▁drowning
▁enquired
▁grumbled
▁guarding
▁hindered
▁monsters
▁mornings
▁payments
▁quitting
▁recruits
▁sideways
▁vehicles
▁vocation
▁Amsterdam
▁Beethoven
▁augmented
▁defendant
▁graduated
▁infection
▁operating
▁plaintive
▁resisting
▁sepulchre
▁throbbing
--+--------
▁aggressive
▁compelling
▁powerfully
▁stupendous
▁Restoration
▁concessions
▁revelations
▁thermometer
▁continuation
▁inclinations
▁precipitated
Da
ME
RES
Ref
Tur
USS
big
bud
fav
mph
tie
Gold
bons
cuts
icum
loat
oyle
rast
▁Ish
▁Jay
▁Mix
▁Nab
▁QUE
▁Rum
▁ark
ERSON
beams
burne
combe
encia
fires
ptune
reeks
ucing
▁Bond
▁Brew
▁COUR
▁Dane
▁FOUR
▁Farn
▁Kind
▁Pale
▁Rams
▁Vent
▁alum
▁begu
▁dais
▁pian
▁quid
▁toll
summer
▁CHILD
▁Catal
▁Essay
▁Faust
▁Keats
▁Thorn
▁Truly
▁Whigs
▁bases
▁feeds
▁fried
▁irons
▁laure
▁misle
▁rents
▁spire
Without
herical
ifiable
ivation
▁Agatha
▁Damasc
▁Josiah
▁Louvre
▁Panama
▁Rebell
▁august
▁bridal
▁cleans
▁cooled
▁crafty
▁feasts
▁gaping
▁greedy
▁junior
▁manual
▁piazza
▁stride
▁tapped
▁trusty
▁whiche
▁wilful
Whatever
speaking
tholomew
▁Congreg
▁Hunting
▁Iceland
▁Pharise
▁Wilhelm
▁bearded
▁culprit
▁cynical
▁depreci
▁flooded
▁infring
▁marshes
▁monthly
▁notably
▁regrets
▁singers
▁sparkle
▁venison
▁weights
▁alacrity
▁calendar
▁complied
▁detested
▁disabled
▁impunity
▁laboring
▁maturity
▁obsolete
▁prettily
▁reasoned
▁saucepan
▁Religious
▁Thackeray
▁anecdotes
▁concludes
▁conversed
▁discerned
▁glorified
▁illusions
▁intrusion
▁loveliest
▁peasantry
▁survivors
▁youngster
▁Babylonian
▁Lancashire
▁Mohammedan
▁abstracted
▁commandant
▁disgusting
▁outrageous
▁withdrawal
▁contrivance
▁correctness
▁engineering
▁prohibition
▁restlessness
▁approximately
▁superstitions
▁congratulations
"_
Ag
WE
hw
rt
Pet
Sil
bat
gas
viz
▁ll
also
cipl
dear
inas
ipel
iris
itar
itas
ools
opic
▁CHE
▁Dot
▁Lac
▁Ske
▁boo
▁ego
.....
Roman
herly
ibule
ipher
orian
ouche
urnal
▁Chet
▁Evil
▁Gret
▁Hamp
▁Marc
▁Mlle
▁PREF
▁Pand
▁Pine
▁Save
▁Wals
▁fray
▁grub
▁lect
▁moan
▁rupt
▁sans
▁sont
▁walt
Letter
bodied
growth
ppings
rusted
yellow
▁Blanc
▁Eugen
▁Jules
▁NORTH
▁Salle
▁Savoy
▁Sleep
▁UNDER
▁Villa
▁barge
▁comme
▁droll
▁durst
▁edged
▁giddy
▁joins
▁medal
▁spine
ensible
urgents
written
▁Anyhow
▁Strand
▁fleets
▁hamlet
▁inculc
▁intact
▁laurel
▁mellow
▁parrot
▁picket
▁rowing
Histoire
▁Antioch
▁Bologna
▁Erasmus
▁abounds
▁bundles
▁decency
▁exploit
▁harshly
▁infants
▁licence
▁pastime
▁pensive
▁profile
▁soundly
▁twinkle
elligence
▁Bismarck
▁Colonies
▁Sullivan
▁Thornton
▁chimneys
▁confront
▁customer
▁distaste
▁failures
▁freezing
▁inflamed
▁proposes
▁purified
▁receiver
▁reigning
▁reporter
▁savagely
▁surgeons
▁terminal
▁traveler
▁Beauchamp
▁Christina
▁Herodotus
▁Wentworth
▁attaining
▁comprised
▁desertion
▁heartless
▁hurricane
▁impetuous
▁proposing
▁relieving
▁separates
▁submerged
▁terminate
▁vineyards
interrupted
▁Harrington
▁demolished
▁facilitate
▁officially
▁precarious
▁purchasing
▁sanctioned
▁scattering
▁descriptive
▁effectively
▁exploration
▁exquisitely
▁forthcoming
▁momentarily
▁occurrences
▁illumination
▁unaccountable
▁qualifications
Fe
XL
pi
'?"
,'"
Bot
_.[
mot
qui
tec
tho
▁Kl
▁Ko
▁ot
OULD
Read
avit
boro
cade
eret
itre
jack
kill
phis
sted
▁ACT
▁BUR
▁Inj
▁Kle
▁LAW
▁Led
▁Lex
▁Mab
▁Nev
▁Oil
▁Pem
▁dol
▁lig
▁obt
▁sar
Death
ammed
celot
jects
oored
▁Alma
▁Cros
▁Opin
▁Sieg
▁Spir
▁athe
▁barr
▁fitt
▁frog
▁lute
▁moll
▁rais
▁rupe
▁vert
elties
ologne
umping
▁Abyss
▁Caleb
▁Counc
▁Oscar
▁Perse
▁Range
▁bivou
▁booty
▁broth
▁bulls
▁chari
▁clash
▁cleft
▁friar
▁gases
▁guise
▁maker
▁panel
▁senor
▁squat
▁teams
▁valor
fection
servant
▁Bertie
▁Brooke
▁Econom
▁Gibbon
▁Horses
▁Jonson
▁Lastly
▁Rabbit
▁Rector
▁beamed
▁crater
▁favors
▁herein
▁incont
▁livery
▁mutiny
▁paltry
▁quarry
▁tablet
▁vaults
▁weakly
▁Cunning
▁Elector
▁Officer
▁Spenser
▁chapels
▁denotes
▁elector
▁flights
▁illegal
▁stabbed
▁stoutly
▁vaulted
▁cavalier
▁commemor
▁crowding
▁crowning
▁eruption
▁gloomily
▁hardness
▁intrepid
▁scarcity
▁serenity
▁thickets
▁timidity
▁torrents
▁utensils
▁validity
▁variance
-+--------
possession
▁adversity
▁astronomy
▁biography
▁commonest
▁impudence
▁sandstone
▁squadrons
▁stability
▁tributary
▁Missionary
▁challenged
▁deplorable
▁pestilence
▁reproached
▁affectation
▁endeavoring
▁intoxicated
▁prerogative
▁trustworthy
▁willingness
▁completeness
▁conservative
▁persistently
▁translations
▁unfavourable
▁inexperienced
Lo
zt
Far
IFF
STR
amo
ffe
las
log
mma
tim
ées
▁Aw
▁Fo
ANGE
Vict
ardy
asis
disc
does
ishe
izer
sets
▁HOR
▁Lun
▁Map
▁Mut
▁OUT
▁SUB
▁xix
aiser
anzas
asive
clair
coats
nants
resse
uates
▁Adel
▁Bonn
▁Cork
▁Eton
▁Font
▁Hawk
▁Nova
▁Reed
▁Rule
▁Sail
▁besp
▁leak
▁role
Boston
ugging
▁Booth
▁Cleop
▁Hague
▁Manor
▁Poets
▁Thess
▁adieu
▁arena
▁hotly
▁shewn
▁swoon
▁tarry
▁tinge
Neither
atholic
dington
▁Deacon
▁Falcon
▁Flower
▁Ground
▁Lionel
▁Steele
▁averse
▁deline
▁dorsal
▁frying
▁glands
▁hooked
▁indemn
▁kinder
▁lances
▁lazily
▁learns
▁neared
▁piston
▁retort
▁sheath
▁tinged
▁trough
aggering
children
hibition
▁Dresden
▁Present
▁annexed
▁avarice
▁billows
▁carpets
▁insults
▁onwards
▁rebuilt
▁simpler
▁symptom
▁vacancy
▁verdure
▁whitish
Sometimes
▁Brooklyn
▁Kingston
▁altitude
▁chloride
▁civility
▁diplomat
▁downfall
▁hardship
▁impudent
▁motioned
▁narrowly
▁offender
▁perverse
▁supposes
▁triangle
▁trustees
▁vivacity
▁Beautiful
▁Champlain
▁Gradually
▁Naturally
▁anxieties
▁barbarism
▁conveying
▁crouching
▁estimates
▁immovable
▁imprudent
▁marvelous
▁nightmare
▁rejection
▁skilfully
▁surviving
▁travelers
▁consummate
▁insurgents
▁physically
▁reappeared
▁salutation
▁accommodate
▁affirmative
▁distressing
▁thoughtless
▁unanimously
▁remonstrance
▁exceptionally
▁strengthening
CO
Ib
kh
"),
Dav
Dis
Ext
Mel
cad
eri
idi
pal
tel
▁fu
Call
ULAR
ande
crow
inos
ussy
wald
▁Ard
▁BEN
▁Ign
▁Lad
▁Lil
▁TOM
▁WOR
▁ais
▁ane
▁dir
▁nec
Third
again
althy
inies
▁GOOD
▁JACK
▁Joel
▁Khal
▁Mord
▁Olaf
▁Pull
▁Rede
▁Yard
▁agon
▁cuck
▁fust
▁hive
▁inan
▁stor
▁sulp
▁twig
▁typh
Robert
ceding
opened
oplane
taking
umably
▁Alban
▁Crist
▁Ferry
▁Noble
▁Schol
▁acids
▁assim
▁assur
▁clang
▁fists
▁havoc
▁heark
▁imbib
▁manip
▁maple
▁undue
▁units
▁unlaw
atories
between
inities
morning
pentine
stances
▁Amelia
▁Dalton
▁Pepper
▁Quaker
▁Survey
▁Waters
▁albeit
▁chilly
▁clothe
▁dearer
▁defied
▁enjoys
▁extern
▁fathom
▁lessen
▁manned
▁pinned
▁shaggy
▁swamps
icksburg
structed
▁Battery
▁Flemish
▁Husband
▁Notting
▁Pilgrim
▁Shirley
▁Somehow
▁bouquet
▁ceasing
▁discomf
▁freshly
▁halting
▁lunatic
▁minimum
▁recited
▁scratch
▁uniting
▁wistful
alleyrand
foundland
itiveness
▁Language
▁blinding
▁brownish
▁crashing
▁creative
▁grandest
▁nitrogen
▁stairway
▁transmit
▁wavering
▁wrinkles
▁Evidently
▁Robertson
▁Treasurer
▁absorbing
▁credulity
▁crucified
▁discarded
▁indulgent
▁inspected
▁peaceable
▁petitions
▁policemen
▁potential
▁repulsive
▁surveying
▁tormented
▁volunteer
▁combustion
▁countryman
▁diminution
▁dissipated
▁engravings
▁excellency
▁infallible
▁recompense
▁reverently
▁sculptured
▁suspecting
▁benediction
▁obliterated
▁developments
▁contradictory
Bo
Wr
Act
FUL
PRO
Pal
Rom
Sit
UNE
_.”
ahr
bbe
bil
bin
iza
rae
▁SK
Each
NING
Part
beam
bore
idas
ieri
iton
lium
mout
nery
olla
rers
▁Cay
▁Dob
▁Gaw
▁Ont
▁PHI
▁Phy
▁Pir
▁Rif
▁Rut
▁Sag
▁Yea
▁dum
▁phe
▁sta
assan
heric
lines
onica
ungen
until
▁Dona
▁Gale
▁Mere
▁Rosa
▁Seth
▁WASH
▁WHAT
▁Ware
▁Watt
▁bulb
▁bunk
▁cape
▁grop
▁perj
▁rugs
▁sunt
▁wold
During
adians
enance
filled
igator
princi
▁Clive
▁Filip
▁Perry
▁Prior
▁ferns
▁grapp
▁guile
▁miner
▁nause
▁retal
▁shrug
▁snare
▁taunt
▁yells
British
herence
ingling
lemagne
onation
onesome
rippled
uations
▁Buenos
▁Danube
▁Moslem
▁Nellie
▁Orders
▁Orient
▁Pompey
▁Rhodes
▁Temper
▁Wilton
▁absorb
▁academ
▁concil
▁masked
▁panted
▁soiled
▁stanza
▁unreal
historic
mination
▁Baldwin
▁Gospels
▁Kenneth
▁Stories
▁actress
▁ammonia
▁blindly
▁copious
▁dealers
▁demoral
▁employs
▁feigned
▁foresaw
▁foresee
▁forfeit
▁gasping
▁railing
Therefore
▁Cherokee
▁Manufact
▁Question
▁astonish
▁athletic
▁cleverly
▁collapse
▁confound
▁emperors
▁excommun
▁methinks
▁primeval
▁remnants
▁symmetry
▁tapestry
▁tempered
Everything
▁Catharine
▁Commodore
▁Constable
▁Peninsula
▁advocated
▁exploring
▁expulsion
▁flattened
▁framework
▁installed
▁longitude
▁repairing
▁translate
▁Expedition
▁Honourable
▁apprentice
▁chivalrous
▁disappears
▁distribute
▁embroidery
▁flickering
▁observance
▁quotations
▁satisfying
▁exasperated
▁importation
▁ineffectual
▁provocation
▁reservation
▁instrumental
▁intoxication
▁ILLUSTRATIONS
▁accomplishing
")
-,
?)
Sl
”—
Cur
GIN
Hor
UAL
WAY
asi
chy
fam
xxx
zzi
..."
Jose
bius
imal
mail
plan
▁Abe
▁Bog
▁Cry
▁Kin
▁Rid
▁Riv
▁SAM
▁SHA
▁Sah
▁VAL
▁ony
elect
front
ittal
locks
oledo
othec
ulein
▁Adri
▁Born
▁CAST
▁Cull
▁Hein
▁Host
▁Ling
▁Lois
▁ache
▁cycl
▁font
▁hust
▁lied
▁mais
▁mosa
▁nupt
▁toad
▁unde
▁wrap
United
adiers
athers
burton
inable
ischen
izarro
marked
▁Fresh
▁Fruit
▁Girls
▁McCle
▁Nelly
▁Pelop
▁Privy
▁Vatic
▁Whitt
▁bough
▁chasm
▁cycle
▁fared
▁gravy
▁hyper
▁mates
▁shack
▁usurp
armouth
mentary
osoever
▁Beside
▁Carrie
▁Guinea
▁Period
▁Queens
▁Reuben
▁Savage
▁Volunt
▁aerial
▁bitten
▁canons
▁denies
▁halves
▁joking
▁meekly
▁outcry
▁panels
▁ration
▁softer
▁subjug
▁viciss
▁wiping
▁Charity
▁Heavens
▁Teacher
▁Thomson
▁Whoever
▁abiding
▁anthrop
▁austere
▁avenues
▁bravest
▁chilled
▁courier
▁craving
▁creates
▁deposed
▁electro
▁galleys
▁grunted
▁infidel
▁knotted
▁legally
▁lengths
▁movable
▁murmurs
▁portent
▁prelate
▁provoke
▁quoting
according
formation
▁Maitland
▁clerical
▁exposing
▁ignoring
▁intruder
▁narrower
▁reptiles
▁vacation
▁vouchsaf
▁Friedrich
▁ambitions
▁cruelties
▁forfeited
▁imagining
▁meditated
▁overpower
▁southwest
▁unconcern
▁vestibule
▁whimsical
▁Dictionary
▁Talleyrand
▁counsellor
▁despatches
▁foreground
▁initiative
▁licentious
▁microscope
▁practising
▁publishing
▁reinforced
▁strikingly
▁tabernacle
▁triangular
▁unaffected
▁obstinately
▁scholarship
consciousness
▁appointments
▁countenances
▁disconcerted
▁disobedience
▁subscription
-------+--------
Kn
Cap
Rob
dad
ggs
giv
uba
vie
▁Pu
▁eb
LING
Last
Over
aldo
bill
deep
itte
sail
song
teau
vary
▁Blu
▁Chi
▁DEC
▁Hil
▁Lag
▁MOD
▁Pay
▁Pis
▁Ree
▁Tel
▁Tud
▁Vit
▁baw
▁elm
▁fid
▁wak
Yours
asket
asted
iator
igree
trans
ulant
▁Bian
▁Lope
▁Petr
▁Rice
▁Sang
▁THIS
▁Week
▁bash
▁bitt
▁clar
▁dint
▁gren
▁guer
▁lave
▁rasp
▁rive
German
alking
ancies
entive
follow
istent
matter
onians
ranger
▁Colon
▁Cupid
▁Denis
▁Moral
▁Parts
▁Watch
▁beech
▁comet
▁curly
▁dolls
▁growl
▁leaps
▁pseud
▁sacks
▁sally
▁spade
▁stung
▁truer
believe
issible
▁Cortes
▁Gibson
▁Pyrene
▁Sacred
▁Scipio
▁Toledo
▁adhere
▁aisles
▁census
▁colder
▁defile
▁denote
▁embers
▁ethics
▁exuber
▁harang
▁hierog
▁knowed
▁musing
▁muster
▁pained
▁pantom
▁poorly
▁priori
▁spouse
▁stowed
▁suitor
▁sultan
▁themes
illation
orations
▁Animals
▁ENGLISH
▁Evening
▁Mowbray
▁Perkins
▁Pizarro
▁Seville
▁Toronto
▁Ulysses
▁anatomy
▁chatter
▁curling
▁dancers
▁grating
▁hollows
▁loading
▁matched
▁oranges
▁oratory
▁peevish
▁piteous
▁refract
▁ruffian
▁scourge
▁screwed
▁shrieks
▁spheres
▁sterile
▁trodden
▁unbelie
▁willows
▁womanly
▁wouldst
▁yelling
▁Conquest
▁Damascus
▁circling
▁efficacy
▁founders
▁mahogany
▁mansions
▁overseer
▁pavilion
▁prairies
▁skirmish
▁smoothed
▁tortures
▁unawares
▁versions
▁ancestral
▁atrocious
▁confessor
▁grievance
▁indiscrim
▁isolation
▁liberated
▁northeast
▁offenders
▁stratagem
▁sumptuous
▁indictment
▁peacefully
▁transports
▁Bartholomew
▁Southampton
▁abstraction
▁forbearance
▁masterpiece
▁mountainous
▁unspeakable
▁Newfoundland
▁denomination
▁spontaneously
:[
YL
fu
hm
tz
ASE
Bri
Den
cam
cop
eme
exp
eze
kan
saw
uri
▁'"
Alex
XIII
acke
aque
beds
enez
fing
kily
nell
oute
rade
thag
them
tons
uers
ulet
uria
▁Als
▁BOY
▁RET
▁Reb
▁Sew
▁Sty
▁bug
▁coy
▁myr
anked
build
celer
chlor
enter
icest
idels
ordes
skins
stadt
▁Band
▁Bois
▁Came
▁Cuth
▁DISC
▁Dund
▁Garn
▁Kath
▁Loud
▁Tall
▁Tenn
▁coqu
▁eats
▁fatt
▁inim
▁lash
▁stee
Nature
agonal
deacon
employ
inally
letons
spirit
stance
▁Carlo
▁Estab
▁FRANC
▁Gates
▁Larry
▁Silas
▁WHICH
▁frogs
▁heter
▁inert
▁pence
▁shred
▁slang
▁sorce
▁stagn
▁symph
▁unass
another
erville
legraph
matical
▁Carson
▁Elinor
▁Justin
▁Minnie
▁Morley
▁Tories
▁amends
▁brutes
▁cocked
▁covert
▁finite
▁grease
▁rumour
▁singly
▁slower
▁tucked
▁volupt
Although
aciously
osterous
▁Bennett
▁Brahman
▁Britons
▁Jenkins
▁Passion
▁Popular
▁Proceed
▁Ptolemy
▁SECTION
▁broadly
▁coupled
▁cushion
▁diverse
▁exacted
▁forgets
▁fulfill
▁gallons
▁hatched
▁ignoble
▁intoler
▁obeying
▁paradox
▁perusal
▁squeeze
▁surmise
▁theater
▁tracing
▁Achilles
▁Bradford
▁Brighton
▁Fontaine
▁Possibly
▁candlest
▁credited
▁deferred
▁dejected
▁dispense
▁fleeting
▁football
▁incompet
▁initials
▁mightily
▁mutually
▁mystical
▁narrowed
▁outlined
▁pregnant
▁prelates
▁rigorous
▁somethin
▁trailing
▁twisting
▁unfolded
▁unjustly
▁Christine
▁believers
▁combining
▁demeanour
▁farmhouse
▁horrified
▁illumined
▁organisms
▁ownership
▁primarily
▁provident
▁purchases
▁redoubled
▁treasurer
▁advertised
▁coronation
▁familiarly
▁invariable
▁prominence
▁subjective
▁uniformity
▁Chamberlain
▁conflicting
▁controlling
▁disregarded
▁illustrates
▁embarrassing
▁metaphysical
▁indefatigable
▁miscellaneous
▁correspondents
SW
.,"
AMM
Ben
Del
Inf
RIB
Too
URY
bia
bug
cot
▁Aj
▁Qq
▁rh
Five
Know
Stay
Wood
XVII
duke
ects
evil
ggie
igns
lord
prop
ucid
uebl
usts
▁Ary
▁Dad
▁Fav
▁MAT
▁SIM
▁hyd
▁pes
▁ree
▁rib
▁tus
Madam
Speak
cript
grass
ibles
imely
maids
mency
racts
▁Bets
▁Eman
▁GREE
▁Heat
▁LONG
▁Lond
▁Race
▁Rebe
▁Shad
▁Thad
▁Tong
▁Tyre
▁Vere
▁fidd
▁malt
▁roam
▁womb
▁xxii
arding
leaves
oughby
witted
▁Bloom
▁Brock
▁Demet
▁FRANK
▁Forty
▁Grove
▁NIGHT
▁Pratt
▁Rhode
▁buggy
▁casts
▁chrom
▁dairy
▁dissu
▁eaves
▁gaudy
▁scrub
▁sects
▁tests
▁tying
achable
gressed
grounds
scribed
▁Allies
▁Conrad
▁Marius
▁Traged
▁glared
▁inmost
▁inters
▁legion
▁linked
▁mended
▁milder
▁oyster
▁pacing
▁spokes
▁tariff
▁Address
▁Alabama
▁Capitol
▁Carroll
▁Chatham
▁Concord
▁Diamond
▁awarded
▁boister
▁burying
▁closest
▁coveted
▁durable
▁embassy
▁mirrors
▁offense
▁trapper
▁Aberdeen
▁Articles
▁Drummond
▁Formerly
▁Savannah
▁Teutonic
▁abnormal
▁confines
▁derision
▁diseased
▁downcast
▁founding
▁highness
▁pardoned
▁reliance
▁repelled
▁Henrietta
▁Launcelot
▁Priscilla
▁appetites
▁automatic
▁clergymen
▁detection
▁emigrants
▁incumbent
▁liberally
▁pamphlets
▁swiftness
▁therefrom
▁tolerated
▁tottering
▁visionary
▁comforting
▁comprising
▁hysterical
▁incoherent
▁livelihood
▁abandonment
▁dilapidated
▁impregnable
▁stimulating
▁bewilderment
▁disturbances
▁inconceivable
▁indifferently
▁objectionable
▁organizations
▁uninterrupted
EK
FT
Bur
Gra
Pat
ROP
UEL
ité
oba
pay
▁(=
▁MO
Cast
IENT
Mars
PART
agna
avel
gray
iler
imet
meal
odic
ossa
ulas
uter
▁BEL
▁BRE
▁Fay
▁Lys
▁RED
▁jet
▁nae
▁zig
TIONS
aires
aline
balls
bones
dding
drawn
estim
ianus
otype
perse
▁CAMP
▁Cypr
▁Dall
▁Edge
▁Kend
▁Kore
▁Trin
▁Wins
▁dens
▁pits
▁puls
▁seiz
▁unlo
▁wint
▁yore
Nobody
beaten
ething
garden
iaries
looked
oughed
strich
▁Break
▁Brian
▁Daven
▁Franz
▁Hutch
▁Norse
▁Seine
▁Sharp
▁THEIR
▁badge
▁bowls
▁bribe
▁empir
▁gayly
▁glide
▁infat
▁peers
▁plume
▁rumor
▁taxed
▁unavo
▁unden
-------
flowers
ipelago
ographs
pecting
▁Dragon
▁Essays
▁Fraser
▁Harley
▁Judges
▁Putnam
▁SCHOOL
▁Tucker
▁aright
▁banish
▁befell
▁clamor
▁cloths
▁comely
▁compos
▁debtor
▁embank
▁levied
▁midway
▁pallid
▁quadru
▁quartz
▁rudder
▁tangle
▁uphold
▁Bradley
▁Capital
▁Sisters
▁camping
▁comical
▁commons
▁corpses
▁debates
▁dispens
▁epigram
▁exceeds
▁graphic
▁lookout
▁mourned
▁outcast
▁recital
▁scorned
▁tropics
▁trotted
▁varnish
▁Chinaman
▁Electric
▁Francois
▁Richards
▁Sandwich
▁checking
▁coloring
▁consoled
▁disquiet
▁drenched
▁farthing
▁feasting
▁impaired
▁lanterns
▁managers
▁meanings
▁mortgage
▁organize
▁overflow
▁passport
▁reformed
▁repented
▁romances
▁sluggish
▁snapping
▁unwonted
▁verified
▁warnings
▁withheld
government
▁Grenville
▁Macdonald
▁Rebellion
▁approving
▁beholding
▁bourgeois
▁collector
▁destinies
▁devouring
▁organised
▁precincts
▁sportsman
▁sulphuric
▁Maximilian
▁assertions
▁continuity
▁exaltation
▁fortresses
▁helplessly
▁neutrality
▁prosecuted
▁protesting
▁Charlemagne
▁Governments
▁antiquities
▁whereabouts
▁commandments
▁corporations
▁incomparable
▁manufacturer
▁remonstrated
------+--------
xy
--”
Ask
CHE
DEN
Jac
ULT
dep
gee
sqq
swe
▁Fu
▁__
▁ét
Aunt
Fort
Hear
Till
atia
hook
iago
istr
lden
legs
oors
oris
rend
seed
thon
▁Cup
▁Dup
▁FAR
▁Kel
▁MEN
▁Maz
▁Pau
▁Roc
▁Sev
▁Sik
▁WIL
▁cla
▁kai
ATTLE
ISHED
South
assus
atton
crown
ogram
sooth
ubber
▁Baby
▁CENT
▁Epic
▁Hebr
▁Open
▁Peck
▁Tert
▁Todd
▁Virt
▁chor
▁dive
▁hemp
▁vern
People
access
boards
▁Chick
▁Chrys
▁Drury
▁Guide
▁Naval
▁Organ
▁Psalm
▁Rouen
▁THETA
▁Ville
▁WATER
▁crank
▁flirt
▁flute
▁indel
▁inund
▁latch
▁purer
▁relic
▁semic
▁silks
▁slabs
▁tiles
▁trips
▁undec
▁undef
▁vogue
▁xviii
conduct
▁Alpine
▁Branch
▁Corpor
▁Darius
▁Legend
▁Prophe
▁camera
▁catech
▁corpus
▁deacon
▁decked
▁gettin
▁livres
▁moaned
▁mosque
▁napkin
▁prized
▁promul
▁sponge
▁spruce
▁status
▁steeds
▁subdue
▁summed
▁Clemens
▁Hamburg
▁Hawkins
▁Leipzig
▁Minerva
▁Village
▁amended
▁ascetic
▁cowards
▁divined
▁hapless
▁hatchet
▁hovered
▁kindest
▁omnibus
▁parsley
▁patrons
▁pinched
▁postage
▁pounded
▁ravines
▁sharing
▁timbers
▁warming
▁worsted
utherland
▁AMERICAN
▁Buchanan
▁Peruvian
▁accosted
▁billiard
▁boulders
▁casually
▁chatting
▁choicest
▁clusters
▁covetous
▁crippled
▁exacting
▁excelled
▁fabulous
▁harassed
▁imperson
▁meridian
▁operator
▁orchards
▁palpable
▁patriots
▁perfumed
▁populous
▁receipts
▁sporting
▁streamed
▁tattered
▁terraces
▁troopers
▁Greenwich
▁Melbourne
▁Middleton
▁Published
▁Returning
▁aesthetic
▁applauded
▁celebrity
▁foresight
▁ingenuous
▁memorials
▁predicted
▁preserves
▁refrained
▁remarking
▁tragedies
▁WASHINGTON
▁Willoughby
▁membership
▁shuddering
▁stealthily
▁subscribed
▁unobserved
▁conjectures
▁continental
▁crystalline
▁defenceless
▁enlargement
▁interfering
▁naturalists
▁precipitous
▁theoretical
▁ascertaining
▁investigated
▁mysteriously
▁simultaneous
▁unaccustomed
▁conspicuously
▁signification
▁Administration
BO
Ca
FL
sb
▁q
--(
Fif
IUM
UME
_,”
adi
cen
epe
hay
hee
meg
nae
ryn
vir
~}.
▁Og
Fire
IFIC
JECT
ders
ifts
ilus
iste
llum
lore
mile
rots
ruff
urns
▁Adv
▁Bid
▁Cul
▁Fan
▁HON
▁Nun
▁REF
▁Swe
▁Wig
▁ail
▁cud
▁quo
▁sic
▁tug
▁zen
----”
Child
Small
arter
faith
hardt
isson
tains
treat
▁Belt
▁Folk
▁Hert
▁Luis
▁Male
▁Move
▁Pack
▁Peak
▁Thra
▁Wake
▁baza
▁clap
▁curb
▁curl
▁dell
▁drud
▁egot
▁holl
▁ills
▁latt
▁mien
▁moat
▁nett
▁swan
▁wert
Edward
atrick
enberg
hering
icence
nature
ologie
otence
prints
rieved
utting
▁Chron
▁Cover
▁Maker
▁Owing
▁forge
▁fumes
▁gruff
▁inequ
▁insom
▁poker
▁prope
▁wager
ancroft
givings
mouthed
settled
worship
▁Fields
▁Manuel
▁Proper
▁Thorpe
▁againe
▁betook
▁blinds
▁depict
▁dreamt
▁enlist
▁gleams
▁jovial
▁miscon
▁mutter
▁pallor
▁physic
▁routed
▁shakes
▁unders
▁vassal
▁wailed
▁walnut
▁wonted
Farewell
appropri
carriage
seigneur
▁Article
▁Bavaria
▁Brandon
▁Clayton
▁Judaism
▁Schools
▁Special
▁Vatican
▁ascribe
▁averted
▁federal
▁moulded
▁redoubt
▁repeats
▁reproof
▁runaway
▁slander
▁unutter
▁wreaths
intendent
sometimes
▁Commerce
▁Doctrine
▁Melville
▁Patience
▁arrogant
▁breakers
▁dismayed
▁electors
▁enjoined
▁epidemic
▁extremes
▁intemper
▁lessened
▁nuisance
▁pervaded
▁presumpt
▁segments
▁speakers
▁withhold
▁Goldsmith
▁Norwegian
▁Universal
▁carbonate
▁clutching
▁downright
▁fervently
▁maintains
▁provoking
▁renounced
▁Marseilles
▁Nottingham
▁assemblies
▁capricious
▁critically
▁disordered
▁enchanting
▁heightened
▁innocently
▁meditating
▁permitting
▁precedence
▁precipices
▁prediction
▁projection
▁rheumatism
▁uncommonly
▁accompanies
▁unavoidable
▁mademoiselle
▁preposterous
▁handkerchiefs
▁reminiscences
▁uninteresting
▁identification
▁unintelligible
Su
nu
}.
?'"
Jer
Jim
Won
_.'
aki
loe
mic
▁EV
▁Eb
ANTS
Down
Land
Wall
amer
atem
houn
uchy
▁COP
▁Fus
▁Ist
▁Neb
▁Nem
▁Orn
▁PRI
▁Rhe
▁Tea
▁ich
▁vor
ANDER
alian
beaut
fters
icely
isely
oodle
ooses
texts
ulled
unuch
woven
▁Caes
▁Dise
▁Ella
▁Mais
▁Odin
▁PORT
▁SONG
▁amal
▁bard
▁crib
▁esse
▁glen
▁hose
▁pans
▁pies
▁sept
bedded
chesse
embark
gerton
ifices
outing
washed
▁-----
▁Arund
▁Cedar
▁Fancy
▁Patri
▁Payne
▁Shrew
▁Steel
▁TRANS
▁Terry
▁candy
▁ditto
▁downe
▁emiss
▁slips
▁sobri
▁tinct
▁undis
Memoirs
eworthy
oinette
▁Angela
▁Annual
▁Autumn
▁Baltic
▁Canton
▁Gaston
▁Plates
▁Rights
▁Saxony
▁afloat
▁barter
▁brazen
▁calves
▁clover
▁clutch
▁cooler
▁epithe
▁griefs
▁maxims
▁misled
▁starry
▁sweeps
spirited
utenants
▁Barclay
▁Conquer
▁Neptune
▁Radical
▁Silence
▁Stanton
▁bandage
▁cursing
▁dilemma
▁ditches
▁intends
▁merited
▁moaning
▁pompous
▁rascals
▁smashed
▁stiffly
▁unaware
▁uncouth
continued
▁Montague
▁Prescott
▁Pyrenees
▁Redeemer
▁ancestry
▁beckoned
▁caresses
▁chastity
▁drawback
▁equalled
▁grounded
▁lonesome
▁pondered
▁prefixed
▁pretends
▁refugees
▁rudeness
▁spoonful
acquainted
renchments
▁Cleopatra
▁Episcopal
▁Frankfort
▁McClellan
▁adjourned
▁atonement
▁cessation
▁discovers
▁frequency
▁glittered
▁inspiring
▁magnetism
▁opportune
▁shrieking
▁troubling
▁Antoinette
▁Cunningham
▁Sutherland
▁auspicious
▁authorship
▁banishment
▁degenerate
▁disrespect
▁doubtfully
▁imaginable
▁mournfully
▁naturalist
▁prophecies
▁unfamiliar
▁courteously
▁executioner
▁humiliating
▁meditations
▁partnership
▁slaughtered
▁compartments
▁exclamations
▁assassination
▁constitutions
▁discrimination
;_
?—
Aw
Cr
éd
Des
ERV
MEN
Mic
eis
omi
usa
zon
▁_"
."—_
Cent
Desc
Fair
ayan
azzo
diff
doll
erts
imar
mong
oder
oxys
▁Ble
▁CLE
▁DIV
▁Etr
▁HIM
▁REG
▁Rip
▁TER
▁WIN
▁cer
▁dab
▁xxi
▁yel
EMBER
OSEPH
Peace
attie
chaic
cting
itant
leine
luble
onnes
pread
produ
sense
sight
state
story
unday
▁Chil
▁FORE
▁Fine
▁GIRL
▁GOLD
▁Game
▁MARK
▁Moss
▁PRIN
▁Rowe
▁Shel
▁aide
▁bats
▁deux
▁dots
▁exor
▁fait
▁noct
▁oils
▁pent
▁perd
▁snar
▁spar
▁tous
acking
common
ectory
eighth
ighton
ougham
▁Arden
▁Bonif
▁Cheap
▁Donna
▁Hazel
▁Index
▁Rajah
▁crave
▁livid
▁optim
▁sacri
▁sloop
▁unear
▁unsha
angular
glasses
igerent
perfect
▁Across
▁Leyden
▁Pythag
▁Ursula
▁Voyage
▁apiece
▁checks
▁chests
▁forked
▁glazed
▁inflex
▁jewell
▁pauper
▁replen
▁riddle
▁thrive
▁tribal
▁truest
▁uncomp
▁upheld
▁valves
▁vested
▁weighs
citizens
shadowed
ventures
▁Cologne
▁Grammar
▁Margery
▁Siberia
▁Wharton
▁angelic
▁carcass
▁dazzled
▁experts
▁irrevoc
▁murders
▁pickets
▁poorest
▁proflig
▁rallied
▁ruinous
▁rumours
▁savings
▁seating
▁smitten
▁soluble
▁thinkin
▁toiling
▁woollen
▁Bertrand
▁Broadway
▁Dutchman
▁Magdalen
▁believer
▁crescent
▁earnings
▁eligible
▁entreaty
▁masterly
▁noblemen
▁pedestal
▁remotest
▁requests
▁rightful
▁senators
▁stamping
▁stitches
▁sulphate
▁unbelief
▁uniforms
▁wanderer
▁workings
accessible
▁Highlands
▁adjective
▁creations
▁dexterity
▁eternally
▁foolishly
▁imploring
▁inanimate
▁indolence
▁petticoat
▁promenade
▁sagacious
▁sarcastic
▁secession
▁threatens
▁treatises
▁triumphed
▁warehouse
▁appendages
▁attracting
▁cordiality
▁emigration
▁implicitly
▁lengthened
▁psychology
▁atmospheric
▁matrimonial
▁overhanging
▁punctuation
▁breathlessly
▁incompatible
▁specifically
▁dissatisfaction
."(
Add
Der
Ten
Yea
mac
rea
▁Nu
▁Ps
▁TE
▁um
▁——
Capt
Conf
Mark
Next
OVER
Span
York
_,--
asal
bant
dark
ibid
luck
moon
opol
reth
rion
sche
sper
▁CUR
▁Dac
▁Deb
▁Hau
▁Kur
▁Omn
▁Phe
▁Rac
▁SYN
▁VIS
▁doo
▁jes
▁jib
among
ascar
bells
brush
cians
fight
grace
iches
ordid
othea
xious
▁Beat
▁Bron
▁Cary
▁DIST
▁Gonz
▁Nice
▁OVER
▁WIND
▁Wand
▁beau
▁fung
▁omen
▁pane
▁purg
▁quay
▁stup
▁synt
▁wary
irming
issors
ixture
pocket
rather
relief
▁Build
▁Devon
▁Exper
▁Goths
▁Islam
▁Jonas
▁Logan
▁NOTES
▁Pepys
▁Sugar
▁WHITE
▁WORLD
▁Yorke
▁bends
▁dizzy
▁heave
▁lifts
▁lilac
▁lurid
▁meats
▁panor
▁pouch
▁privy
▁sewed
▁sieve
▁slung
▁sooth
Forgive
acities
command
entered
eredith
inarily
quitoes
▁FAMILY
▁Grange
▁Kaiser
▁Madras
▁Member
▁Psalms
▁Sierra
▁Warner
▁ablest
▁ankles
▁astern
▁ballot
▁benign
▁bluish
▁bolder
▁bursts
▁crafts
▁embody
▁filial
▁hissed
▁infect
▁lodges
▁meddle
▁patted
▁poised
▁pollen
▁rabble
▁ranked
▁skulls
▁smells
▁splash
▁sweets
▁swells
▁tipped
▁trance
▁trusts
▁uncont
▁voting
olutions
oubtedly
whatever
▁Atlanta
▁Desmond
▁Memphis
▁Rowland
▁Straits
▁Vermont
▁abashed
▁acceler
▁adviser
▁bankers
▁blotted
▁couples
▁diocese
▁enclose
▁fervour
▁lawless
▁marries
▁membran
▁parched
▁paroxys
▁peeping
▁sneered
▁sparrow
▁travers
▁vertebr
▁Anything
▁Buddhism
▁Yarmouth
▁amphithe
▁compiled
▁councill
▁decrease
▁devilish
▁discount
▁displace
▁himselfe
▁menacing
▁metaphor
▁musketry
▁outrages
▁outright
▁perfumes
▁scolding
▁semicirc
▁treading
▁untimely
▁wireless
everything
▁Huguenots
▁Telegraph
▁acquitted
▁apostolic
▁bethought
▁deepening
▁discredit
▁encircled
▁gallantly
▁magnified
▁mistaking
▁mutilated
▁sacrament
▁smilingly
▁strictest
▁surprises
▁thundered
▁Apparently
▁attainment
▁bequeathed
▁completing
▁diminutive
▁immigrants
▁lamentable
▁negligence
▁preferring
▁requesting
▁voluptuous
▁advertising
▁festivities
----+--------
▁apprehensive
▁decomposition
▁disappointments
BL
MR
iw
mu
.—_
ARS
Bon
Mal
Mor
abe
oed
tta
”--
▁('
▁EP
▁os
▁zu
:--'
Anne
Mont
RIAC
affe
anga
anum
arns
atsy
hung
isch
liad
mael
oger
ombe
raim
stud
▁ANG
▁ASS
▁Ada
▁Exc
▁Fac
▁Hak
▁Jur
▁KEY
▁LEG
▁LOU
▁Sle
▁Sud
▁TRE
▁Tub
▁Wey
▁bil
▁dau
▁ker
▁peu
▁pug
Aside
Daily
atrix
ayton
edged
erenn
ieces
orsed
raise
rival
▁BRIT
▁Berg
▁Cure
▁Erie
▁Mann
▁Milk
▁Plot
▁Sall
▁Trou
▁barg
▁bony
▁edit
▁fict
▁glue
▁jugg
▁pell
▁pung
▁thim
▁yere
Church
Exeunt
SYRIAC
Unless
igning
ineers
ublics
velops
venile
▁Fifty
▁Goose
▁Hohen
▁Morse
▁Parma
▁Prair
▁cider
▁deuce
▁gipsy
▁maize
▁psalm
▁pumps
▁salon
▁scarf
▁scull
▁soils
▁tanks
▁xxiii
iterate
sellers
▁Answer
▁Bolton
▁Cherry
▁Circum
▁Coffee
▁Elijah
▁Godwin
▁Hollow
▁Pierce
▁Samson
▁Speech
▁Supper
▁Syrian
▁Vivian
▁aiding
▁darkly
▁exiled
▁fairer
▁faulty
▁innate
▁occult
▁puffed
▁realms
▁rhymes
▁ripple
▁rupees
▁sallow
▁spoons
▁staple
▁tiptoe
▁uneven
▁unexpl
▁usages
reaching
▁Garrick
▁Markham
▁Members
▁Preface
▁Terence
▁Whereas
▁amorous
▁arguing
▁banking
▁consuls
▁delinqu
▁mercies
▁nightly
▁respite
▁revered
▁robbing
▁rupture
▁striped
▁testing
▁vestige
▁volcano
▁Complete
▁Fielding
▁Lancelot
▁affright
▁annoying
▁ardently
▁barriers
▁bounding
▁category
▁cheerily
▁deciding
▁intermin
▁prestige
▁prodigal
▁readings
▁reciproc
▁salutary
▁tangible
▁trespass
▁ventures
▁watchman
▁Inspector
▁clustered
▁confiding
▁explorers
▁feathered
▁greetings
▁induction
▁infirmity
▁loathsome
▁momentous
▁nourished
▁reformers
▁softening
▁transient
▁waterfall
▁Cornwallis
▁arithmetic
▁assurances
▁noteworthy
▁ordinances
▁overturned
▁peremptory
▁reiterated
▁toleration
▁vouchsafed
▁accusations
▁battlefield
▁belligerent
▁disapproval
▁impassioned
▁metaphysics
▁obstruction
▁unhappiness
▁dispensation
▁examinations
▁incidentally
▁unfrequently
▁anticipations
▁entertainments
BS
.—"
.’”
ELY
Luc
REY
Val
XVI
_,[
eda
iis
lab
lev
nec
oco
opo
phi
▁ry
Hand
Prof
Rose
aric
been
ccas
cure
enus
hild
lost
mith
none
rope
zona
▁BER
▁Civ
▁Eye
▁Gou
▁ITS
▁Tad
▁WHO
▁dys
▁lik
▁sue
Mamma
Music
OVERN
aloes
blind
ccane
ctory
death
hanes
ilius
ndish
▁Amos
▁Bach
▁Deut
▁JOUR
▁Jock
▁Pied
▁Pond
▁Salv
▁Sett
▁Show
▁Thir
▁Utah
▁Zool
▁film
▁flap
▁oint
▁pudd
▁sitt
Joseph
abling
olling
omingo
ubbard
▁Andes
▁Digby
▁Journ
▁Piers
▁Pride
▁Punch
▁THREE
▁Tolst
▁WORKS
▁avert
▁bleed
▁bucks
▁chums
▁cooks
▁ensue
▁famed
▁footh
▁immem
▁loans
▁skiff
▁sperm
▁spied
▁splin
▁truck
▁wards
Brother
issions
noxious
witness
▁Astron
▁Balzac
▁Cyprus
▁Desert
▁Pastor
▁Rodney
▁Sophie
▁Tavern
▁Weston
▁artful
▁chords
▁claret
▁cracks
▁engend
▁graver
▁legacy
▁makers
▁molten
▁mornin
▁nailed
▁notary
▁option
▁preten
▁regent
▁rogues
▁underm
humoured
ordinate
▁Chapman
▁Fairfax
▁Galilee
▁Newgate
▁PREFACE
▁Success
▁conflag
▁denoted
▁derives
▁discons
▁entries
▁fasting
▁garland
▁marvels
▁nucleus
▁peaches
▁screams
▁stanzas
▁strides
▁stroked
▁tonight
organized
▁Baroness
▁Building
▁Cuthbert
▁Hitherto
▁Holiness
▁Judgment
▁Percival
▁carriers
▁clapping
▁constell
▁despotic
▁disclose
▁dragoons
▁draughts
▁enrolled
▁flinging
▁groaning
▁heedless
▁heritage
▁mortally
▁sentries
▁sketched
▁upturned
▁verandah
▁veterans
▁Knowledge
▁Spiritual
▁Stratford
▁attitudes
▁calculate
▁caressing
▁faltering
▁grumbling
▁hazardous
▁impulsive
▁incorrect
▁indulging
▁intrinsic
▁promoting
▁saturated
▁deportment
▁depressing
▁detestable
▁enjoyments
▁fulfilling
▁laughingly
▁plundering
▁practition
▁presumably
▁prophesied
▁securities
▁suspension
▁underlying
▁utterances
▁vindictive
▁enchantment
▁inquisitive
▁INTRODUCTION
▁fermentation
▁inaccessible
▁questionable
▁participation
▁physiological
▁inconveniences
!—
.}
Au
IK
Ain
Def
Dra
URS
enc
hau
mur
oue
▁JE
▁ka
Half
Scar
Scot
appy
bags
buck
disp
dled
each
eton
fair
grad
grey
inta
onda
osse
phil
sold
ylus
▁ANN
▁Dim
▁Emm
▁Geo
▁HEL
▁Ile
▁SQU
▁Sto
▁Woo
▁edd
▁ger
-----
Frank
Humph
IENCE
Irish
ORIES
XVIII
actic
alsam
eared
laugh
mberg
onant
ruits
sixth
▁Cler
▁Coal
▁Cove
▁INDE
▁Java
▁Odys
▁Sain
▁Tuil
▁Vand
▁Vitt
▁ampl
▁bled
▁dean
▁diab
▁erud
▁kern
▁pess
▁roug
▁sich
▁slit
▁tens
▁vend
acular
alding
gently
guards
hounds
icants
ithing
letter
nesses
placed
▁Alvar
▁Delhi
▁Exche
▁Ghent
▁Katie
▁Papal
▁Quick
▁Rufus
▁Whist
▁Worth
▁XXVII
▁Youth
▁bugle
▁civic
▁expir
▁farce
▁focus
▁leant
▁metre
▁ponds
▁rally
▁sells
▁squal
▁turmo
▁twain
▁wides
▁wilds
forcing
hetical
itional
▁Ashton
▁Brooks
▁Calais
▁Cicely
▁Labour
▁Patric
▁Really
▁Sumner
▁Willis
▁canyon
▁chauff
▁delays
▁deluge
▁exiles
▁falcon
▁loosed
▁radius
▁stains
▁villas
cedented
▁Cottage
▁Monthly
▁Wheeler
▁breezes
▁chancel
▁compete
▁dawning
▁elevate
▁fraught
▁groping
▁humbled
▁impetus
▁nearing
▁prefers
▁spurred
▁tablets
▁warmest
▁yawning
September
▁Pericles
▁courtier
▁crumpled
▁disheart
▁fostered
▁impotent
▁levelled
▁monarchs
▁scramble
▁superint
▁vineyard
▁Assistant
▁Byzantine
▁Philosoph
▁Tuileries
▁Wilkinson
▁Yesterday
▁audacious
▁credulous
▁crumbling
▁healthful
▁irrespons
▁perfected
▁realistic
▁sentinels
▁solicited
▁succumbed
▁workhouse
▁Buonaparte
▁aboriginal
▁belongings
▁biographer
▁compulsion
▁convulsive
▁discourses
▁disorderly
▁hemisphere
▁performers
▁repugnance
▁sanctified
▁superhuman
▁surpassing
▁weaknesses
▁annihilated
▁approximate
▁cleanliness
▁competitors
▁perceptions
▁respiration
▁territorial
▁commissioner
▁contradicted
▁subscriptions
▁extraordinarily
Ep
PS
Sk
APP
AYS
Bro
CLE
ONT
Tim
ahu
cum
dev
fin
hah
hew
igi
sts
▁SO
▁_(
Corn
Mean
UTEN
abad
acea
arez
bush
cour
lane
olus
roof
root
uret
warm
wide
▁Inv
▁Lob
▁MUR
▁McL
▁ROM
▁Wad
▁cog
▁hip
▁lax
▁vil
Crown
OLOGY
Relig
acion
asius
avans
boxes
henes
iates
illus
uchar
▁Appl
▁Crit
▁Eyes
▁Find
▁Fray
▁HALL
▁Hath
▁Leop
▁Nina
▁Pius
▁Rece
▁Same
▁Send
▁Term
▁Vale
▁Wick
▁Wynd
▁abbe
▁casc
▁crev
▁doin
▁elle
▁gene
▁halo
▁hoss
▁jost
▁outs
▁pose
▁prun
▁scan
▁tatt
Pardon
Philip
covery
iliary
illary
ovitch
thirst
thorpe
uitous
▁Aztec
▁Bench
▁Betsy
▁Borde
▁Friar
▁Giant
▁Going
▁Grass
▁Jamie
▁Joyce
▁Paine
▁Rhoda
▁Rollo
▁SOUTH
▁Templ
▁Twice
▁allev
▁cette
▁coils
▁daunt
▁disin
▁downs
▁drugs
▁entra
▁godly
▁inart
▁inscr
▁lingu
▁mania
▁salad
▁sling
▁swind
▁torto
▁tourn
▁unatt
▁waged
▁waked
▁waxed
▁wedge
Morning
asterly
blooded
guarded
hundred
iculate
▁Caliph
▁Palais
▁Parish
▁Potter
▁Rather
▁Reader
▁SERIES
▁STATES
▁Scotia
▁adroit
▁cocoan
▁counse
▁glassy
▁halluc
▁loomed
▁propit
▁quarts
▁repeal
▁runner
▁savour
▁spells
▁tokens
▁transe
▁unbear
▁wintry
▁Bridget
▁Detroit
▁Domingo
▁Ephesus
▁Everard
▁Knowing
▁Marcell
▁Marston
▁animate
▁appease
▁arsenic
▁beastly
▁condesc
▁conjure
▁depress
▁drought
▁flocked
▁forbids
▁fragile
▁hammock
▁handsom
▁laurels
▁liquors
▁luckily
▁meanest
▁mustard
▁parable
▁parcels
▁peacock
▁pillows
▁privacy
▁scanned
▁straits
▁studded
▁waggons
▁Beaufort
▁Business
▁Ferguson
▁Gustavus
▁Josephus
▁Lutheran
▁Pictures
▁Register
▁Standard
▁biscuits
▁devoutly
▁erecting
▁factions
▁flexible
▁inclosed
▁mariners
▁molasses
▁narrated
▁praising
▁reappear
▁sanitary
▁studious
▁thinkers
▁worrying
▁Exchequer
▁PRESIDENT
▁aeroplane
▁barbarian
▁betraying
▁bracelets
▁dishonour
▁endeavors
▁flowering
▁garrisons
▁insisting
▁intermitt
▁pantomime
▁potassium
▁prosecute
▁shrubbery
▁stimulate
▁Peloponnes
▁Principles
▁admonition
▁bookseller
▁cartridges
▁chancellor
▁creditable
▁disengaged
▁dissimilar
▁enormously
▁formations
▁sympathize
▁vibrations
▁Nightingale
▁bombardment
▁considerate
▁contraction
▁persistence
▁astronomical
▁housekeeping
▁individually
▁intercession
▁regeneration
▁substitution
▁unacquainted
▁distinguishes
▁contradictions
AF
—”
Att
Mil
TIC
imi
pts
zie
▁AF
▁ER
▁Gn
▁Vo
BERG
Ever
Mess
Prov
Send
_--_
answ
bolt
came
holm
kine
oult
pour
rack
rave
says
▁Bah
▁Bau
▁Cot
▁DON
▁Fly
▁Gad
▁Gav
▁Mak
▁Nau
▁Owl
▁Pul
▁SON
▁len
▁una
Early
amble
aurus
erves
illie
olith
othed
phies
roned
uncle
unker
verbs
young
▁Argy
▁Barr
▁Best
▁CONF
▁Cain
▁Cato
▁Cobb
▁Fest
▁Food
▁Muss
▁Stub
▁Tort
▁Wart
▁Wren
▁colt
▁jist
▁peat
▁xxiv
Origin
assion
bearer
etches
hesion
persed
▁Antig
▁Bibli
▁Birth
▁Bride
▁Dixon
▁Hicks
▁Jason
▁Labor
▁Lazar
▁Patsy
▁Polit
▁Revel
▁Tweed
▁atone
▁crows
▁cures
▁dwind
▁gales
▁knoll
▁mails
▁precl
▁prick
▁saunt
Letters
▁Barlow
▁Dakota
▁Ethiop
▁JOSEPH
▁Leaves
▁Making
▁Manner
▁Strang
▁bushel
▁curing
▁decade
▁deduct
▁equity
▁immeas
▁incant
▁miller
▁quench
▁trails
▁tribut
▁unites
▁unprof
▁untrue
▁wizard
▁Calhoun
▁Customs
▁Rebecca
▁Sanders
▁Tragedy
▁bubbles
▁candour
▁chagrin
▁clients
▁copying
▁directs
▁disagre
▁fellers
▁fencing
▁festive
▁flowery
▁forgery
▁geology
▁inquest
▁keepers
▁matured
▁portico
▁scraped
▁signing
▁stalked
▁streaks
▁transit
▁trigger
sacrifice
▁Alderman
▁Carlisle
▁Covenant
▁Creation
▁Everyone
▁Infinite
▁Meredith
▁Original
▁Roderick
▁dangling
▁destroys
▁dictator
▁emerging
▁excesses
▁forsooth
▁importun
▁infidels
▁outraged
▁pedigree
▁pounding
▁reserves
▁reviewed
▁salaries
▁scissors
▁severest
▁survival
▁tenement
▁unerring
▁wheeling
▁Protector
▁Whitehall
▁capturing
▁dismissal
▁formality
▁melodious
▁obnoxious
▁offending
▁priceless
▁splashing
▁tightened
▁Everywhere
▁antagonism
▁ecclesiast
▁immemorial
▁inexorable
▁paragraphs
▁pleasanter
▁privations
▁promontory
▁suddenness
▁widespread
▁witnessing
▁calculating
▁evaporation
▁habitations
▁measurement
▁participate
▁unfavorable
▁ventilation
▁withdrawing
▁Intelligence
▁condescended
▁illustrating
▁longitudinal
▁purification
▁thoroughfare
▁Superintendent
":
LI
Day
ELF
San
Vir
_);
cco
eek
gat
lys
pun
wls
zag
▁Cu
▁ES
▁pt
▁ré
BURY
Dick
OPLE
Prot
bane
blin
bran
chat
cien
deal
etle
etti
eyes
inde
issy
lass
odus
olks
quam
seat
vain
zzar
▁Dri
▁Hux
▁NOR
▁Own
▁SUM
▁Sap
▁TAL
▁fus
▁osc
▁qua
▁raz
acons
alcul
comes
fifth
happy
icult
ifred
igate
illot
kered
lived
noons
oreal
oward
toned
uling
ussed
▁Bare
▁Berm
▁Bold
▁Cruz
▁Duff
▁FAIR
▁Holt
▁LAST
▁Parn
▁Plum
▁Rein
▁awed
▁balm
▁bean
▁cope
▁dues
▁fles
▁frae
▁inad
▁mace
▁spat
▁unim
▁unwh
▁wigw
church
ennial
estown
ivocal
person
quered
rimony
rising
ussion
▁Ammon
▁BROWN
▁Boone
▁Bring
▁Daddy
▁Koran
▁Scene
▁aunts
▁gland
▁hoary
▁isles
▁jests
▁nymph
▁palat
▁pneum
▁pours
▁spraw
▁wrigg
enhagen
growing
illustr
inately
isively
olesome
present
riendly
▁Benton
▁Capell
▁Dennis
▁Graves
▁Mechan
▁Vander
▁Whence
▁brooks
▁chisel
▁declar
▁depred
▁eagles
▁franch
▁hourly
▁hypnot
▁marshy
▁merest
▁metres
▁shaved
▁sordid
▁subsid
▁thighs
▁thwart
▁tremor
▁turban
▁wicket
thinking
▁Chelsea
▁Embassy
▁Records
▁Reports
▁Tacitus
▁Witness
▁catches
▁caverns
▁chasing
▁chooses
▁chuckle
▁clamour
▁enquire
▁enquiry
▁fleeing
▁mending
▁midship
▁planter
▁ravages
▁runners
▁servile
▁soaring
▁wavered
aboration
inguished
naturally
▁Boulogne
▁Buddhist
▁Generals
▁Pembroke
▁absently
▁alluring
▁cultured
▁flitting
▁humblest
▁insomuch
▁mattress
▁mechanic
▁recoiled
▁sidewalk
▁slumbers
▁stifling
▁workshop
Washington
obiography
▁Cavendish
▁Pharisees
▁abounding
▁attaching
▁crackling
▁designate
▁fluttered
▁intestine
▁lightened
▁listeners
▁pictorial
▁safeguard
▁shoemaker
▁skeletons
▁smoothing
▁venturing
▁wrestling
▁birthplace
▁boisterous
▁capacities
▁domination
▁expiration
▁fictitious
▁forefinger
▁incidental
▁instructor
▁irritating
▁memorandum
▁quarrelled
▁undulating
▁youngsters
▁Antiquities
▁Confederacy
▁concurrence
▁contracting
▁designation
▁dissipation
▁distraction
▁penetration
▁predominant
▁theologians
▁tributaries
▁illustrative
▁interrupting
▁vicissitudes
▁acknowledging
▁administering
▁inconsiderable
'"
Du
])
AUS
Div
Mis
ONY
Sen
Sub
XIV
cro
hoe
rou
shr
unn
wal
zan
▁([
▁Dw
▁IR
▁ic
▁vp
Mass
Post
alow
cipe
coup
elic
enta
esis
gart
ilee
ilie
meat
nest
ngth
ouin
oway
pike
reys
stal
wash
ysed
▁AUG
▁Boe
▁Ers
▁Fau
▁Lit
▁NOV
▁Ole
▁Pip
▁REP
▁Rib
▁SEA
▁Urb
▁Wet
▁Won
▁abl
▁ein
▁hex
▁iod
▁mee
▁nag
▁ont
▁tul
Plate
Smith
Whose
ephal
icant
igeon
jeant
lehem
mante
ooled
stall
sweet
tures
▁Alec
▁COMM
▁Cald
▁Chad
▁Dare
▁Doll
▁Ezek
▁Grac
▁Hymn
▁PASS
▁Pisa
▁STUD
▁Seal
▁Soft
▁Stay
▁accl
▁auld
▁ital
▁lids
▁mire
▁plen
▁tars
▁tidy
▁trav
angers
better
denial
ickory
integr
lights
repres
umbold
▁Blind
▁Borne
▁Claus
▁Halle
▁Liszt
▁Rules
▁Thing
▁Waver
▁antit
▁click
▁foxes
▁hares
▁inlet
▁piers
▁sable
▁saucy
▁sites
▁wench
service
veloped
▁Caucas
▁Claire
▁Copper
▁Deputy
▁Lucius
▁Mollie
▁Nights
▁Seward
▁Toward
▁aspire
▁conval
▁deftly
▁frosty
▁implac
▁naming
▁novice
▁obsequ
▁potash
▁weaken
educated
▁Arizona
▁Castile
▁Dolores
▁Ephraim
▁Homeric
▁Johnnie
▁Martine
▁Navarre
▁Ontario
▁Romance
▁Species
▁Tartars
▁abolish
▁affront
▁brushes
▁bunches
▁cheated
▁coroner
▁courtly
▁dictate
▁finance
▁footmen
▁lengthy
▁seaward
▁soberly
▁tresses
▁turmoil
eminently
rangement
▁Bancroft
▁Corporal
▁Fernando
▁Santiago
▁Theology
▁Valencia
▁archives
▁bedstead
▁beverage
▁contests
▁counters
▁disloyal
▁edifices
▁evermore
▁hallowed
▁hollowed
▁mattered
▁meanness
▁mustache
▁printers
▁soldiery
▁spotless
▁stocking
▁unlocked
▁vigilant
▁volatile
▁Brigadier
▁Carthagin
▁Principal
▁conflicts
▁deceiving
▁enclosing
▁matrimony
▁parentage
▁reservoir
▁schoolboy
▁tradesmen
▁unceasing
▁variously
▁Opposition
▁casualties
▁criticisms
▁encounters
▁enumerated
▁exchanging
▁indicative
▁narratives
▁observable
▁organizing
▁persuading
▁regulating
▁relentless
▁sprinkling
▁tumultuous
▁unbearable
Nevertheless
▁circumstant
▁consciences
▁conventions
▁discharging
▁furthermore
▁interchange
▁restraining
▁contrivances
▁conveniences
▁delightfully
▁marvellously
▁condescension
▁conflagration
▁unprecedented
Je
wd
GAN
IED
LED
QUE
RIA
Sar
det
ozo
▁HY
▁SN
▁ez
▁va
ALLY
Also
Disc
Fred
HERE
Hull
Pers
Poss
Prep
Soon
abet
akin
amba
anti
gina
list
mbre
raft
sers
vine
ynge
▁ALE
▁Beg
▁Dil
▁Fry
▁Gle
▁Hed
▁Jed
▁Mou
▁Pig
▁Tin
▁VER
▁ebb
▁kit
▁ros
▁rus
ISTER
Jesus
Light
OUGHT
Quick
Until
dream
esley
grams
inked
monde
outed
pired
raeli
raits
ustic
▁Core
▁Fame
▁HAVE
▁Isid
▁Judy
▁Lead
▁Linn
▁Murd
▁Nass
▁Nord
▁Serm
▁WELL
▁apes
▁bale
▁crab
▁elic
▁emac
▁peal
▁peel
▁rick
▁scam
▁suns
▁unsp
▁xvii
Answer
aining
irting
optera
vocate
▁Forth
▁Guise
▁Luxem
▁Milly
▁Pitts
▁QUEEN
▁Salam
▁Sanct
▁Songs
▁Start
▁aback
▁attic
▁babes
▁bonny
▁darts
▁excel
▁figur
▁flats
▁gauge
▁hurts
▁lusty
▁moths
▁smash
▁stale
▁tawny
▁twine
▁yeast
January
innamon
patrick
▁Alaska
▁Amazon
▁Angels
▁Aubrey
▁Denver
▁Double
▁Hughes
▁Miguel
▁Necess
▁Nichol
▁Patter
▁Powell
▁Riding
▁Simple
▁Swedes
▁aiming
▁basins
▁brides
▁evenly
▁fables
▁hordes
▁housed
▁jagged
▁loaves
▁merged
▁modify
▁molest
▁overha
▁proven
▁scroll
▁shovel
▁testim
▁uterus
▁widest
▁widows
foreseen
illingly
numbered
ocations
onnected
tershire
▁Charter
▁Genesis
▁Leopold
▁Prosper
▁Surgeon
▁agonies
▁alludes
▁bailiff
▁bedding
▁bicycle
▁comprom
▁darting
▁dilated
▁echoing
▁empress
▁exhilar
▁falsely
▁flanked
▁furrows
▁gambler
▁impious
▁indoors
▁remuner
▁revolve
▁stammer
▁stratum
▁tapping
▁tearful
▁thinner
▁wayside
antically
▁Bordeaux
▁Interior
▁Penelope
▁Petrarch
▁Prudence
▁Somebody
▁Stirling
▁alluding
▁approxim
▁assaults
▁auspices
▁buttered
▁climates
▁concerts
▁disperse
▁everyday
▁heaviest
▁lounging
▁melodies
▁mythical
▁occupant
▁oriental
▁panorama
▁puzzling
▁shedding
▁smallpox
▁stealthy
▁strategy
▁surgical
▁swarming
▁tenacity
▁Conqueror
▁Madeleine
▁arrogance
▁barricade
▁beauteous
▁bitterest
▁boatswain
▁chauffeur
▁conceited
▁favorably
▁midsummer
▁paramount
▁penniless
▁presiding
▁replacing
▁reprinted
▁sauntered
▁shortened
▁sickening
▁solutions
▁sufferers
▁torturing
▁triumphal
▁undecided
▁Experience
▁Hutchinson
▁constraint
▁emphasized
▁fanaticism
▁fastidious
▁foreboding
▁fraternity
▁misgivings
▁overflowed
▁circulating
▁detachments
▁foolishness
▁inaugurated
▁rudimentary
▁strangeness
▁Metropolitan
▁friendliness
▁proportioned
▁appropriation
▁pronunciation
▁reconstruction
▁conscientiously
!!
AX
Ev
Mc
Ur
',"
ICA
Non
asa
cit
fre
gro
ifl
kar
uin
won
▁Oz
Arab
Duke
Edin
Near
Nove
aund
chee
emis
gran
hari
itta
kell
lars
lley
mand
need
olin
orte
▁Adj
▁Aix
▁Bak
▁DUN
▁Ded
▁Fow
▁JUD
▁LUC
▁Sky
▁Tat
▁Zur
▁cuc
▁neb
ATIVE
ITIES
State
aided
jured
level
liter
omers
uddle
urian
▁Alph
▁Bard
▁Brom
▁Burr
▁Cere
▁Dawn
▁Didn
▁Draw
▁Esqu
▁Euse
▁Fast
▁Gild
▁Hers
▁Lima
▁Mail
▁Mona
▁Prel
▁READ
▁Sale
▁Sien
▁Spec
▁Trad
▁Trip
▁WOOD
▁XXVI
▁dung
▁enth
▁jerk
▁lick
▁paws
▁phon
▁plod
▁rake
▁sapp
▁sash
▁saun
▁saus
▁toma
▁tuft
altern
barred
either
levard
▁Bragg
▁Chant
▁Crete
▁Eaton
▁Feast
▁GREEN
▁Jacqu
▁Malta
▁Marco
▁Sheep
▁Sword
▁Tudor
▁Twain
▁Wayne
▁Witch
▁ached
▁dandy
▁droop
▁eulog
▁gente
▁niche
▁picks
▁plied
▁scalp
▁tunic
esterly
fitting
hunting
oisters
▁Eighth
▁Hassan
▁Hindoo
▁Length
▁Pretty
▁Record
▁Somers
▁Wither
▁builds
▁calumn
▁casket
▁correl
▁diving
▁docile
▁eccles
▁elated
▁encomp
▁fanned
▁funnel
▁furthe
▁groped
▁locate
▁postal
▁queens
▁satell
▁superl
▁tallow
▁tenure
▁upside
▁Hammond
▁Morocco
▁Normans
▁Randall
▁Spirits
▁Wilfrid
▁academy
▁cellars
▁chanted
▁chemist
▁consort
▁consume
▁fainter
▁grassho
▁masquer
▁network
▁obtains
▁partook
▁porters
▁quieted
▁tourist
▁transpl
▁tripped
▁uncanny
▁wrongly
▁Puritans
▁Speaking
▁agreeing
▁blunders
▁breathes
▁deterior
▁enhanced
▁finances
▁highways
▁mistrust
▁provides
▁ratified
▁sobriety
▁sullenly
▁surveyor
▁swallows
▁thanking
▁tourists
▁whipping
▁Engineers
▁Hawthorne
▁awkwardly
▁bewitched
▁blasphemy
▁clambered
▁darkening
▁displaced
▁executing
▁firmament
▁preponder
▁residents
▁sharpened
▁strolling
▁summoning
▁vibration
▁accomplice
▁cigarettes
▁commissary
▁committees
▁dictionary
▁encumbered
▁interviews
▁petticoats
▁signifying
▁stepmother
▁sustaining
▁tyrannical
▁alternating
▁confiscated
[...]
